3d1aa9a0
3d3cf1aa
bc98cc6b
3e15ec2d
3d109340
3e12c592
3aef2c43
bc1b566e
3e53cac7
3c5136c7
3c2c5c56
bc6bc2a1
3e3fcb95
3c882db1
3da2ce39
bd4c1997
ba79bfa3
bd72ac0c
3d8c3c66
be09a2bb
be383889
bdb94bbe
3e8b3a68
bdc2d624
bb5d157e
3cf6bfe7
bdc2fad8
3e094b3b
3dd13418
be04e6f6
3d98dfb7
bd0baf57
3db072cd
bdd09846
bdbf83da
3e08facd
be2ed29f
bd8eb7b7
be0afd17
bd01f7c0
bd4e295c
3dfde664
3db5e9af
bdf8a340
bdcd497a
3cb62894
3e07856b
3b895ed7
bc46af9c
3d6609bf
be23e4db
be18a1af
bda82541
bcb1b557
3cb1aba3
3dc4b92a
bba731d8
3e3082cd
bcb616b1
bd4e9dec
3e1d1be4
be692b88
3e3995dc
3c0bb58e
bdafb845
bd988299
bcd52432
bccc6b9c
bdff902a
bde79ae8
3db020e4
3c5b3ada
3d10ee9d
bde606d6
3e9f1c07
3ddb6c62
bdbb80e3
bdc3b99d
bd8288ac
bdda2fd7
3e76400a
bdbff876
b9423cd1
bd874b8d
bda22ded
bda9f520
bce72faf
bdf6cd55
3d28715b
bd34006c
be14d6d4
bc805aa7
3db0cb63
3cf06689
be2c034c
bdad669b
bdb00dd1
3d1cbc02
bc2b7c1b
be1d81a2
3d8c0674
be12922c
3d57e813
bd88047d
3ce5fc98
b9371e48
bd1647e6
3c9d653f
3b867b00
3d937cf3
bca81c47
bd1322ce
be326671
3e3d0ace
bc350814
bd9a1c40
bdfdca4d
3dae5f21
3b0bfefa
bdf5d587
3abd05b3
3dfd2308
bdb79088
be39fe2b
3e5728b2
3d80cc3b
3c0c40c7
bce4a560
3d552c06
bd89df1c
bd2347aa
be2df667
3d741b63
3d2a8085
bdae483c
bda504b2
bcdb8a05
3d54fbff
bd95baef
be608337
be0097a9
bc77b127
3d692c8c
bd861fee
3daa0e7e
3cc95761
3e0316b6
3d82af29
3e128d4d
bde36277
bde86dae
3d9a9c9d
3b0ecb5c
bd3e18c5
be1740b3
b9f3d9be
3c9db782
3e9fd6dc
3e35f379
3d14c3c1
bd3d4af1
3e0e4108
3e23e564
bdaf55f0
bc603f82
bdc50f1a
3c07b472
3b71785e
3dd885dc
3d599ddf
be227ea3
bd955b24
3caacdbb
bdd365c3
be63c424
3dc56a85
bd89b0b4
3d1339b8
3db2b35e
3db09324
3de5c567
bd5be13b
3e203290
bc04bae1
3e413dde
3d3bb2a3
3ce47e96
3d589079
3c116b91
bdae87dd
3dbd3d13
bdb16d62
bdecd23f
bd212ee7
3d4b610a
bd099dff
bdbba2e4
bd5066cf
3cf3b21a
3d945139
bc7cc589
3e169c62
be4c844b
3c2802fd
bd1f683e
3cb5fde0
bdc9e5f8
be01a828
be9832f6
bd429b3f
3dce9a3a
3cb20522
bd945bd9
3e16e1d8
bd60408a
3e860f3a
3c5de6ab
bdc330f2
3e4a77e0
bc9068eb
bdee5b7f
bdc539f5
bd11d55d
bb78a5b8
3daca1f2
bd267059
bdb4a726
bde9c2c0
bda6af93
bd53e1d1
bd4c2d43
3dfab84c
bdb25063
3c1a7e76
3e9939de
bdd87848
be06b626
3e71a1f3
bd91e34b
bdab1622
3e643112
bd4d1692
3d00f15d
3d9f9d92
3e06ab4c
bd8cc7fb
3e50619e
be5e886f
3d0f457a
be0a7b7c
3d8a7222
be2fb0dc
be32ea5d
3ce6795f
3da38fd1
3c5dace0
bd5a1ae7
be341f64
bdee12c9
3d6e5d9e
3e2532d4
3deed9bd
be05f1a2
bd3fea0c
bd7b2d29
3e0b63a9
3daa5244
be4dd742
3dd61d07
3daa5581
bdb8e511
bd5df60c
bdb13cf8
bd3cce2e
bd013248
3e3f8b67
3e4e94c2
be0f8dcf
3e360a50
bd7167e7
bb1498c9
bdba9275
3ca57894
3ddb6f27
bd3bb851
bd044c63
be0ebdef
3c8639f8
bd432cc2
3de55653
3da5c0d7
3e140702
3e0b98f2
3d8069e3
3d896e69
bde2361b
3e36cd2d
3dcee886
3d76540e
3dfa585f
bdf40daa
3e53f890
3b5154df
be3cc009
3ddc8e45
3c7ce667
be19caf3
bdda95ea
3c8c037e
bd4deea1
be0b0a9f
bdb85d74
3dbe3ece
be47b71a
bd8db226
3d95ddf3
3dc7b2fe
bda47ec5
3c3f84f3
bd9131c5
3dd2eee0
bcb1c515
bc9a89c9
bdc43c43
3e4d2209
3e5d1c7b
bc9bbb3e
bcc5658b
3cef9dae
3d90c1d7
bda04ad9
bcad9c09
3d23e7c0
bdcb8122
3d30d5bd
3e4553bc
bdad5a52
3e33d322
3cee5867
bc5a3312
3dc1cb9f
3da99514
bc9796bb
3d2d670f
3d2bcc16
3d6da303
3de257a0
bd64f599
bcd748d9
3b8776ea
bc1583a5
3cee7e49
bd81d3bc
bc99c2d3
bdab46eb
bdc0bd88
ba8eaeb4
3b1f5082
bd70d53d
bdbe5b79
3c703739
3d20e40a
bdbd5f89
bded665a
be31d300
3db63c45
bdf0ceaf
bd1e7a33
3def6af4
3de85a99
3d9f799a
3d95124f
be08f4f5
bd84440f
3e01b33c
3e411d22
bd32a637
bcae8e8c
bc2781bf
be148792
3e3081d6
bc936bac
3db102ea
bd185007
bdc9bcd8
be219cce
be055327
be3088f3
3ddf0820
3e4e339a
3dcabd40
bd81b227
bd55bb8c
3e15c9a2
bd1ae948
3dc0e1ea
bdda9164
be095139
3de54ff4
3d26949a
3dc01864
bde036fe
3d92b86f
bd8c985a
bd52cb47
3dc51dd7
bda4e41e
3c9b1eb3
3da2cb4b
bdc517b3
3e4e9730
bdd5fd4c
be68f193
3d40afa8
bd6443ba
3da64b4f
3d5646bb
3d8a0a01
3d65c493
3e84f03e
3d96213f
bdb01f2c
3c8f0b95
bdd67457
be0ea1fb
3d53dccd
bd94f5b8
3de3121c
bdcbb6c3
bd5e72a3
3e75eb32
3e01367f
bcd92d4a
bca44cc8
3e479a70
3d7f458b
be0f3aa1
3da82979
3bf083e2
bd76833c
bd46255b
3e27a437
3c46f618
3d65f7a2
3d7aa673
bdb77239
3dec4a1c
bd571aa4
bd3fb190
3c90e90e
bcd4e73b
bc22d16e
3e6b618f
bd5e38c8
bd945971
bd9b3d26
3c545939
3d8dde83
bc0e6cef
be2087e5
3b81d1e1
bdbc794c
bd38f2a1
baacb6e7
be6efb5d
bd91dbca
bda9a992
bd9abeec
3c71dcae
bbaa1832
bcdaeb3d
3cf1e493
3d2379bf
3dfd58c7
3d65d1c1
3d3834af
3da51778
bbf831d4
bd160773
bd7279db
bcc2371c
3d80a96b
bdc9c5df
bd807753
3dc874b2
bd6e214c
bd24a71b
3e0943a1
bd837818
3d9bc199
bcc27587
3dcea807
bd792a63
3c721f4f
be021967
3d898739
be1b2ff1
3d80c1ce
3d72d89d
bd9d4a78
3de1e8ac
bdbb1664
3df3f0e7
3d53a105
bd91ff8c
3e410660
bcda1c2d
3d6abe05
be2e50ee
3dd37be8
be164918
bd60a9f2
3ce67708
3e40acb2
3e9a3c2d
3e143e1f
bdf3e40c
be44bdeb
3dd20ca0
3dd112c8
bb632505
be4779f4
bc4ddd12
3d2c63c8
bd40fe83
3d568cef
bd78da05
3d96e317
3d53f434
3db02020
bd964c35
bc63fb99
3d7a7bbd
3d525bb8
3cabc78d
3d9e2eaf
bd612d4a
3db479c6
3da08160
bc3fdd26
bdad5c38
be33adb1
3bc40e9d
3d9d2023
bd4beccd
3d4ebed2
be2f3483
be01ad74
bda8a458
bcf01303
bd0f7815
3e36a113
bd94518a
be0eaf2e
3de3e9d3
bdec91e5
3d91c6a5
bdb4d56b
be211e1f
bd8f3560
3d5daeae
bd941939
3d9c1547
bca250f6
3da56a4a
bd8ef72e
bda01aaf
bd23996d
bcac7d33
bdc47b67
3d3d09f1
bcc7504d
be3ce25b
3e84b860
be162d55
3c1d0aff
3e4f2a1c
bd03cd1b
38cdb785
bd54cb00
be1585cf
bd01a418
3da82d80
bc45ee05
3c7a6d0c
be08d91b
be3933d1
be05a4bc
bde1e04c
bcaef8a2
3bdc0cf4
3e44d3b4
3e3c40f8
bd09f19b
3cb3e9f3
3d98bd04
bd794bae
3cfdaa12
bd93360f
bda4088e
3d3273ae
3dab7937
bdcd41b7
3cd73bad
bc2a0c75
3c8c47ae
bd08ac38
bd950d93
3d1e776a
3d9525ae
bd59622b
3e6b0dad
bc744b01
3d337a4e
bd35c7e3
bcd700aa
3d482760
3df78a8c
3cfc0216
3de602b3
bd4b02a8
bb93ef20
bb8873a0
be0de4c7
be0315c2
bd34c430
3c89b5ff
3a91fe00
3d3bde88
3c15cf49
bd8481e7
3dfa7f84
3d0bb615
bd6a7680
bdba1b27
3d74b77d
bdcdf1fb
3d4ffdb4
3e67b471
bd57d35f
3c181630
bc36bd81
be18b43c
3d6a0453
bd61b953
bc957401
3e11acd2
3d2636f5
3df7e271
3d94afee
bdac13d1
3d4d98c8
bd9b58b2
3d5e7f9c
3d647971
3d594a9c
bb3c57fe
3ca3c15b
bd4242cc
bd00015f
bd347755
3d8f16ce
bde84cb8
3d51b340
bccdf070
bd9188f2
3e04c4e8
bd831eb8
3a69dfd0
3d61771e
bda005e9
bd8e3c8b
3e191000
3bdb8a90
bd00d4bc
3e247b34
be05a570
bda4134b
3c1ddd4f
bc9e4c87
bd6312d1
3e00cec3
3e13ad89
3da7c9a7
3ca8b1ab
391afbfc
3dc62553
3e0bb487
3bcbe29c
3d9d1b51
bd34be9f
bd54c5b7
3cbb2a53
bcfcc1ed
ba56897c
bd9415b2
3c881b72
3e7b4a85
3a12e0f9
3d2129c8
bdc0f2da
be15de71
be0060b0
3d8bcdce
bd3bdfba
ba341aa4
3ccd1c64
3d696f0c
3de9072b
bc53b419
bdaa45b4
3d2aaa65
bb85a231
bbc23438
3d2ad214
bdebd98a
3d8b9e2d
3c86df89
bd516d94
bccc847a
3d899f6e
bc55bb0f
3b7cf370
3db0566c
3d1a9081
bd9b0715
bd3f4134
3dcd6636
3d826972
bd19e311
bd101426
3cbe52ce
3e0e153b
bd0d9759
bcea6b24
ba69b320
3dbf17cb
bd445cc8
3bd2f703
3db5d4ce
3e0443b8
bda9923c
bd1a03b3
bdfae850
3b78ca6d
bb2f083a
3ca8c42d
3e5f89cd
3e34f986
bd365759
3da49ccb
3d044802
bd0fa5be
3c865c7c
3d2ac9c3
3d886458
3dd629a7
3db02e01
be2864bd
be3790ed
bd8fe239
bd18273c
ba7a2b99
3d6bc830
3dc16c3a
3b17953e
be0df2a7
3d830350
3d9e5526
3e1016d3
3ddbb055
3dfd97a4
bc11405d
be4ebcc9
be1bcf5d
3c67eb53
3cbf6d9e
3d80c5cd
bd946d4e
be34d27b
3d9aca5b
3e889ed5
3d00e963
bdd35eeb
bcd6a395
bdaff72d
bdd39dc8
bd824d18
3e39c575
ba403ed0
3d2e8fc1
3e37370b
3dac3511
3e3952ec
bdfb458f
3ddd6126
3e80dc25
bc71a4fc
be1e2533
3e8a8e8b
bdf55f47
3d0f0e36
3e13585c
bdd7f86a
be52ba61
3d2d2e3f
3e26e71e
bd385999
3d21e4bc
3d2267a6
3d530f8c
3df193bf
3e01387a
bd4b9ffc
bb9ab120
bd99e169
3cb94506
3d31f783
bcd92cc0
3da1eea1
bdbf2966
3d5b44ab
bdb171c8
3df673df
3d58ef43
bc908bed
3e1d16e1
3d80719a
bce83b89
bda1e8f9
bd47aadd
3d6e2ebf
3dfe3b0b
3d9d4449
3bbd2e0c
bc8a50fb
3d6148e5
3d3672cc
3cba62e4
bd3eb938
3d8b5dcc
3e1d3a3f
3d3afc39
bdc7c49d
3c8dd634
3e38a7f0
bccf6b43
3dbc6e49
3d438a01
be21f41e
bd8586a8
3d6b7616
bd8f3a47
3c66fed1
3b83f5ba
bd82e5a6
3cc0e3c9
bd3a9ecb
bd142008
3cbd86eb
3b496969
bd1c32e7
be0f6e9f
bc7cc1ee
3c113b1f
bdc8262f
3e44b7ba
bd914861
bd8ffce2
bdb5fdb3
bd8ffde9
3c3b4545
bd66f5ac
bd4bf3e0
bdd7b473
be34e974
be26252c
bdf5ffa9
3d1c9c51
be1f2cca
bd789a8b
bcd6ee7a
3bfa44e3
3ca1bf1e
3e00d337
3d8e9eb5
be2ef13c
3d6c5169
bdc7d19b
be2659c5
bc04102c
be623215
3db129df
3d994175
3e82b901
bc9ae841
bdb3df98
3d45f9a9
3ddf2fb6
bddc7409
3d2f4e84
bd83eaf1
bdbe96b1
3d614bca
3da02612
bd5cda47
bdacfbc5
3e584833
3daca03d
be2533ce
ba3ccd41
3e08f29f
3da650ad
3d9f60b5
bdc2e78a
bd6eb46e
3b03f158
3dd9eb43
bdbf04a0
bc6ae920
3dd88f73
be0533a3
bdb4e194
3d6824e3
be7a9c47
bd446873
be09bbb6
be41ca71
3c9f58a6
be1a0351
3b303626
bdce9028
3ea42ff7
bd895d0d
3de6b9aa
3e394cfe
be1a3fb1
bd58f347
be10c4e9
3b9fc644
bdad7289
bd8ab5e8
bdb2f1a3
be23d8d3
bd33ec3d
bc16cca7
be026fa9
bdb8d474
bd935ca3
bcf226d2
3e26ff78
bb4621b7
3d88f2f2
3c141f0f
baa00178
3d4bf9c3
3e0c843a
3e4eb35f
3e103e6b
3d766ff9
bc028e2b
bd2296f3
3b632214
bd382307
be489754
be3c8a5a
bd431274
3bd3bb52
3cecb5f8
bdabbf87
bd88ce1b
3e5b973b
3e3e28f4
bcb51f1c
3dc3be29
bd9e538f
3d039364
3e1815e1
3d8e0635
3da32cfc
3cb36c48
3cc1ec78
bb357a17
be177580
bce151ae
bda361e4
3db52193
3d005d28
be1b1e81
bda99573
3e7547e4
3e27f573
3d841a8d
3d90ac4e
3c7435b7
3c2911ca
bde2094c
3e20ecb8
3d0b2277
3daa991b
3d69b700
3d895243
bdb949ff
bd276cc2
3e65c5d7
3dd5e5e2
3d9f993f
3e5f8dc5
3dc38dc1
3caa70b6
bc917550
3d69833e
bdcfd9c6
bcd5831a
3dadf7ba
3ca3e95b
3d60947b
bc13940d
3c5c6aef
3d6eaaf7
3d7cc2c3
3b41d4d2
be440cbd
3ceab7ca
bdc913db
bdb4d684
be14cdf3
3e2a197a
3de734ec
3e0055b7
3dc412fe
bbe7ee63
be0db440
be025544
3e2715dc
bdaba33e
bdee796d
bdbf7177
bdb9c622
bd4663d8
bd225a7f
3cf23138
3c8f3231
bc590f00
3d31ea2a
bccf856f
be0f5cca
bd4fc1e3
bde4cfd6
be03d52c
3e0d9eff
bda965bd
3deae23c
3cfec0e1
3d98ffcc
bddd8324
3d87178f
3e1835f8
3e270b19
3d410a40
bdf430af
3dac8726
3d858b4b
bdb54a45
3d276954
3dfcb700
bc07b75e
bdc51966
3dfc7847
bdf3c1b4
3d80f3b0
3e54b538
bd8ef602
3c964e9a
3d5a1a3e
3d9a8375
3e405a05
3d8cc39e
be00f71b
bb06653b
bd16ad3c
bdbaeb2c
3d9e7eff
bd6e6483
3de65481
3ddde99a
bd970c3a
bbec8f3a
3d0ea40d
3d5d2625
3cb7a4d8
bd7e48c3
3cdf22cb
3e1363bc
3dabc071
3d1166ea
bd97b8ba
3dcf8438
3cc94ee1
bcfb7b41
bc992a59
3d568690
bce639cd
3c134df0
3de934ef
bdfede43
bca55cb0
3d80598e
bdc604ee
3d288b20
bdb93219
bd98f2e4
3d8deafc
3cad7efd
3cb0d3dc
bd91f425
3dc4e770
3d9a6df8
3df132b3
bdaf7c8b
3cb9ccd0
3ca5bcec
bde434fd
3d2a11a8
bda9be9f
bd9e6a70
3d8fa6b4
bd9d49df
bd865e32
bc0fde55
3c71785e
3c90b091
3cbaeca9
bdecf74f
bd851a10
bd0f180e
3e499b87
bdc02c62
bc555cf7
3d1343af
bd2ece60
bdeb8f4b
3d84ee51
bd84bb9e
bb9073d6
3e08b4b8
bd3bdd6e
3d146c6b
bc19fdde
bdaee2d7
bddebe70
3d896183
3d63a415
3e55e3a8
3e036a66
3dd233d3
be1787e0
bc60dd60
be0d6630
3d818047
bd36e36f
be14f391
bd8d98ae
3e10ae8e
bdb6a832
bc852340
3cd96a48
3d8ca3a2
3c5d1681
bca49ec1
bda717b7
bd52d4e3
bdf0d8eb
3d89ae62
bd55ec66
3ceebb78
bcdfcfe1
3d4dee09
3d1ade85
bd384426
bd0e8453
bdd16101
3e28f1dd
3cb32080
3d97d305
3d16f7a8
3dd03e21
be399f2c
3cbb939d
3ca37208
3d2ea5b9
3dc36871
be0613d7
be1bcece
3deeb4a1
bc243684
bcac3ea2
39198512
be2a2e77
bd89f7e7
3a87ffc0
bd0b0938
3dd41f45
3d77409f
3cdc509c
3d307fe2
bd804faf
bd8649d8
bdcd3a93
bdf6e58a
3ae96b21
bd6e2d80
bd6b8973
3e5c3fb7
bc499cd1
b9cd1802
bd9df0c8
bd3a8b3b
bc4b09e6
3d24a8d5
bdec4ff8
be25ff4c
3cfcb7d3
3c300973
bd9acffd
be09ca08
be11a9b5
3de356d1
bd97ba43
bdcd8edd
3c884895
ba2ddd0c
3d70e153
bb54257a
bdb00c66
3da12779
bd640317
3d9b6d0d
3e11308b
bdbdcfa6
bb8de9a6
3d1a11cf
bdc3e6e3
3d9b75ea
bda15709
bd6c4538
3d46f737
3c6d3046
3ccf3e95
bcd6d3a1
bdde054e
3e20951c
be02d991
3e486da3
bd9de7e1
bad71811
b9cf860d
bd99fe5c
bc7d0e18
3d9da6cd
3da75dcd
bde18085
3e17f247
3e49ee13
bd2dfec9
bdcc6b2a
bc07d5b8
bd9a28c9
bd9785bb
bcab90cf
3d935429
3e191deb
3dab26db
3c099b26
bdbd36af
3e07c0c7
bdde2a8c
bd746d5a
3cbf22d7
3d3f068a
bdfe4977
3db57d84
be04d883
bd26e239
3d27726e
3d1f295c
bafdde5e
bcc34e03
bda0534c
3da250a6
00000000
00000000
00000000
00000000
00000000
00000000
00000000
00000000
00000000
00000000
00000080
0000000a
90064000
90065000
90067000
90068000
00000000
00004197
80818193
02000e93
0d0efed7
00002eb7
300eaef3
00000e93
80502373
806023f3
40000e13
03c30333
00730133
00000213
80102f73
40000e13
03cf0f33
01e38433
00003517
fc850513
00003617
fc060613
00c50863
00052023
00450513
fec56ce3
803022f3
0002a303
0042a503
0302a383
0342ae03
00003e97
f88e8e93
00003f17
f84f0f13
007ea023
01cf2023
00000f97
018f8f93
305f9073
000300e7
0000400b
0040006f
00100313
00001297
f5428293
0062a023
00c10113
00420213
0010200b
5e024057
fe112a23
0480200b
fe102e2b
fea12c23
00452283
fe512e23
5e004057
114000ef
ffc12283
5e02c0d7
00000317
0cc3305b
0c00d25b
ff812603
01862283
00062303
01062383
800034b7
04605c63
00c62503
00862583
960360d7
961130d7
021540d7
0084a483
5e05c1d7
5e034257
5e04c2d7
5e0043d7
0001a17b
0000a37b
a2531157
0012120b
021230d7
023231d7
022042d7
00000317
0183305b
fc439edb
00c0006f
0084a303
5e034157
0000205b
01462483
0010200b
960130d7
0400200b
0213c057
0000207b
00100313
02201057
00629e63
800032b7
0082a283
5e02c0d7
fe912e23
038000ef
ffc12483
0400200b
0214c0d7
0000e07b
0000205b
ff412083
0090200b
7fc020ab
ff410113
ffc20213
0010200b
5e024057
00008067
00410113
fe112e23
1a009057
ffc12083
ffc10113
00008067
00410113
fe112e23
00200293
5e02c0d7
00000317
04c3305b
0200885b
00100293
5e02c0d7
00000317
0383305b
0200825b
5e0040d7
00000317
0283305b
00009e5b
108000ef
0180006f
164000ef
0100006f
12c000ef
0080006f
5e004057
0000205b
ffc12083
ffc10113
00008067
00410113
fe112e23
80302573
00852283
80002373
5208a157
02234057
01852e03
8a0e6057
ffc12083
ffc10113
00008067
00410113
fe112e23
80302573
00852283
80002373
5208a157
02234057
01852e03
01c52e83
03ce8f33
8a0f6057
820e6057
5e0ec0d7
00000317
0143305b
0000c65b
fff00f13
021f4057
0000205b
ffc12083
ffc10113
00008067
00410113
fe112e23
80302573
80002373
5208a157
02234057
01852e03
01c52e83
02052f03
03ce8eb3
820ee057
5e0f40d7
00000317
0143305b
0000c65b
fff00f13
021f4057
0000205b
ffc12083
ffc10113
00008067
00410113
fe112e23
f1dff0ef
80302573
80802373
01852e03
02452e83
03c30fb3
01df8fb3
020fc057
ffc12083
ffc10113
00008067
00410113
fe112e23
f19ff0ef
80902373
01c52383
02852e83
02730e33
01de0e33
020e4057
ffc12083
ffc10113
00008067
00410113
fe112e23
f41ff0ef
80302573
80a02373
02052383
02c52e03
026383b3
01c383b3
0203c057
ffc12083
ffc10113
00008067
800000b8
90069000
00000001
00000020
00000001
00000001
00000020
00000001
00000001
00000000
00000000
00000000
00000000
00000000
00000000
00000000
