00000000
00000000
00000000
00000000
00000000
00000000
00000000
00000000
00000000
00000000
00000000
00000000
00000000
00000000
00000000
00000000
00000000
00000000
00000000
00000000
00000000
00000000
00000000
00000000
00000000
00000000
00000000
00000000
00000000
00000000
00000000
00000000
00000000
00000000
00000000
00000000
00000000
00000000
00000000
00000000
00000000
00000000
00000000
00000000
00000000
00000000
00000000
00000000
00000000
00000000
00000000
00000000
00000000
00000000
00000000
00000000
00000000
00000000
00000000
00000000
00000000
00000000
00000000
00000000
00000000
00000000
00000000
00000000
00000000
00000000
00000000
00000000
00000000
00000000
00000000
00000000
00000000
00000000
00000000
00000000
00000000
00000000
00000000
00000000
00000000
00000000
00000000
00000000
00000000
00000000
00000000
00000000
00000000
00000000
00000000
00000000
00000000
00000000
00000000
00000000
00000000
00000000
00000000
00000000
00000000
00000000
00000000
00000000
00000000
00000000
00000000
00000000
00000000
00000000
00000000
00000000
00000000
00000000
00000000
00000000
00000000
00000000
00000000
00000000
00000000
00000000
00000000
00000000
00000000
00000000
00000000
00000000
00000000
00000000
00000000
00000000
00000000
00000000
00000000
00000000
00000000
00000000
00000000
00000000
00000000
00000000
00000000
00000000
00000000
00000000
00000000
00000000
00000000
00000000
00000000
00000000
00000000
00000000
00000000
00000000
00000000
00000000
00000000
00000000
00000000
00000000
00000000
00000000
00000000
00000000
00000000
00000000
00000000
00000000
00000000
00000000
00000000
00000000
00000000
00000000
00000000
00000000
00000000
00000000
00000000
00000000
00000000
00000000
00000000
00000000
00000000
00000000
00000000
00000000
00000000
00000000
00000000
00000000
00000000
00000000
00000000
00000000
3ea8a8a9
3f39b9ba
3f1f9fa0
3f179798
3e70f0f1
3e109091
00000000
00000000
00000000
00000000
00000000
00000000
00000000
00000000
00000000
00000000
00000000
00000000
00000000
00000000
00000000
00000000
00000000
00000000
00000000
00000000
00000000
00000000
3f5ededf
3f7efeff
3f7efeff
3f7efeff
3f7efeff
3f71f1f2
3f46c6c7
3f46c6c7
3f46c6c7
3f46c6c7
3f46c6c7
3f46c6c7
3f46c6c7
3f46c6c7
3f2aaaab
3e50d0d1
00000000
00000000
00000000
00000000
00000000
00000000
00000000
00000000
00000000
00000000
00000000
00000000
3e868687
3ee4e4e5
3e909091
3ee4e4e5
3f23a3a4
3f63e3e4
3f7efeff
3f61e1e2
3f7efeff
3f7efeff
3f7efeff
3f7afafb
3f65e5e6
3f7efeff
3f7efeff
3f0c8c8d
00000000
00000000
00000000
00000000
00000000
00000000
00000000
00000000
00000000
00000000
00000000
00000000
00000000
00000000
00000000
00000000
00000000
3d888889
3e848485
3d60e0e1
3e868687
3e868687
3e868687
3e6ceced
3da8a8a9
3f6ceced
3f7efeff
3ed4d4d5
00000000
00000000
00000000
00000000
00000000
00000000
00000000
00000000
00000000
00000000
00000000
00000000
00000000
00000000
00000000
00000000
00000000
00000000
00000000
00000000
00000000
00000000
00000000
00000000
3ea6a6a7
3f7dfdfe
3f51d1d2
3d909091
00000000
00000000
00000000
00000000
00000000
00000000
00000000
00000000
00000000
00000000
00000000
00000000
00000000
00000000
00000000
00000000
00000000
00000000
00000000
00000000
00000000
00000000
00000000
3db0b0b1
3f69e9ea
3f800000
3ea6a6a7
00000000
00000000
00000000
00000000
00000000
00000000
00000000
00000000
00000000
00000000
00000000
00000000
00000000
00000000
00000000
00000000
00000000
00000000
00000000
00000000
00000000
00000000
00000000
00000000
3f018182
3f7efeff
3f6eeeef
3e30b0b1
00000000
00000000
00000000
00000000
00000000
00000000
00000000
00000000
00000000
00000000
00000000
00000000
00000000
00000000
00000000
00000000
00000000
00000000
00000000
00000000
00000000
00000000
00000000
3e6ceced
3f79f9fa
3f7efeff
3e78f8f9
00000000
00000000
00000000
00000000
00000000
00000000
00000000
00000000
00000000
00000000
00000000
00000000
00000000
00000000
00000000
00000000
00000000
00000000
00000000
00000000
00000000
00000000
00000000
00000000
3f058586
3f7efeff
3f3bbbbc
3ca0a0a1
00000000
00000000
00000000
00000000
00000000
00000000
00000000
00000000
00000000
00000000
00000000
00000000
00000000
00000000
00000000
00000000
00000000
00000000
00000000
00000000
00000000
00000000
00000000
3d109091
3f4dcdce
3f78f8f9
3e68e8e9
00000000
00000000
00000000
00000000
00000000
00000000
00000000
00000000
00000000
00000000
00000000
00000000
00000000
00000000
00000000
00000000
00000000
00000000
00000000
00000000
00000000
00000000
00000000
00000000
3efcfcfd
3f7efeff
3f36b6b7
00000000
00000000
00000000
00000000
00000000
00000000
00000000
00000000
00000000
00000000
00000000
00000000
00000000
00000000
00000000
00000000
00000000
00000000
00000000
00000000
00000000
00000000
00000000
00000000
3e969697
3f7bfbfc
3f70f0f1
3e64e4e5
00000000
00000000
00000000
00000000
00000000
00000000
00000000
00000000
00000000
00000000
00000000
00000000
00000000
00000000
00000000
00000000
00000000
00000000
00000000
00000000
00000000
00000000
00000000
3d989899
3f5dddde
3f7efeff
3f26a6a7
00000000
00000000
00000000
00000000
00000000
00000000
00000000
00000000
00000000
00000000
00000000
00000000
00000000
00000000
00000000
00000000
00000000
00000000
00000000
00000000
00000000
00000000
00000000
3c40c0c1
3f4bcbcc
3f7efeff
3f5bdbdc
3e0c8c8d
00000000
00000000
00000000
00000000
00000000
00000000
00000000
00000000
00000000
00000000
00000000
00000000
00000000
00000000
00000000
00000000
00000000
00000000
00000000
00000000
00000000
00000000
00000000
3e189899
3f7efeff
3f7efeff
3e9a9a9b
00000000
00000000
00000000
00000000
00000000
00000000
00000000
00000000
00000000
00000000
00000000
00000000
00000000
00000000
00000000
00000000
00000000
00000000
00000000
00000000
00000000
00000000
00000000
3df8f8f9
3f60e0e1
3f7efeff
3ee6e6e7
3b808081
00000000
00000000
00000000
00000000
00000000
00000000
00000000
00000000
00000000
00000000
00000000
00000000
00000000
00000000
00000000
00000000
00000000
00000000
00000000
00000000
00000000
00000000
00000000
3f058586
3f7efeff
3f7efeff
3e50d0d1
00000000
00000000
00000000
00000000
00000000
00000000
00000000
00000000
00000000
00000000
00000000
00000000
00000000
00000000
00000000
00000000
00000000
00000000
00000000
00000000
00000000
00000000
00000000
3e74f4f5
3f72f2f3
3f7efeff
3f7efeff
3e50d0d1
00000000
00000000
00000000
00000000
00000000
00000000
00000000
00000000
00000000
00000000
00000000
00000000
00000000
00000000
00000000
00000000
00000000
00000000
00000000
00000000
00000000
00000000
00000000
3ef2f2f3
3f7efeff
3f7efeff
3f5bdbdc
3e20a0a1
00000000
00000000
00000000
00000000
00000000
00000000
00000000
00000000
00000000
00000000
00000000
00000000
00000000
00000000
00000000
00000000
00000000
00000000
00000000
00000000
00000000
00000000
00000000
3ef2f2f3
3f7efeff
3f4fcfd0
3d909091
00000000
00000000
00000000
00000000
00000000
00000000
00000000
00000000
00000000
00000000
00000000
00000000
00000000
00000000
00000000
00000000
00000000
00000000
00000000
00000000
00000000
00000000
00000000
00000000
00000000
00000000
00000000
00000000
00000000
00000000
00000000
00000000
00000000
00000000
00000000
00000000
00000000
00000000
00000000
00000000
00000000
00000000
3d002791
bbb44e64
3bda8678
bb1eb2b0
bd0fb5f0
3c8fa5d2
3cf72816
3c7aeeb8
bce849ae
3c35c0a4
bd0d8f4f
bd0898e2
bc8d556d
bc7cae8c
3ca8523e
3cdede49
bc9301c7
bc62fb52
bce3b3c5
3d003d47
3be8f528
3c183274
bb623970
3c0e5880
3b2e9530
3d0b50f7
bd06e3dd
3c90020e
3c8985dc
3cfa6efe
bcf7a1ec
bcedf4b5
bc447918
3cd6d4cb
bbcd9617
38193dff
3ce8f537
bc730b59
bc1efb93
bcc59b93
3c664afc
3c139e98
bcd71787
3c8df628
3cfc611b
bb1d1be1
bb9326b5
3cdd8925
3c383dd4
bc0b6c49
bb434520
bd02eba5
3a549e80
bcde964c
baa93d40
3ca0d942
bc90026a
3be3f2c0
3c8de667
3be536e9
3c79c0cd
3c0971fe
bca407fa
bcbb6b81
3cd4f617
bcd07752
3d0b601a
393e23d8
3d03e635
3cb90faa
bcff7d29
bcdcd3ee
3cd0fce3
bcd20604
3d0297f6
3d0ecabd
bc81d243
3c93f4cd
3b916f1f
3cf602ad
bcbf3ec5
3bd462b0
3bbf9938
bc2fa0b2
3c40deb0
3c22c7f8
bc3e5b7a
3c06db6a
3d0ae1c7
bccd1ba7
3b080b03
3bbd2b2f
3ccba737
3c2c446f
3cdc7db7
bc510bbd
3a9f7cad
3d0d9ed8
3cb8c5d9
3cacefa6
3bca5f71
3c68f513
3cb0cce4
3d11282d
bc09caaf
3cf652bf
bcd3f76b
3c351bfc
3cec6311
3c96545c
bcb0ea3a
bc56da4a
bbd66c94
3beadd68
bcb32763
3a231e92
bd10e840
bc36410f
bb33d666
3b7db1f7
bc63966d
3c84c3d1
bb91f4c6
baf7e73a
bcce93a0
bcfc807a
bbf219e5
3d013998
3c9ad442
bcf0c52c
bca76929
bcee9f77
3c1a6456
3d02e3a7
3cb617b0
3c63d72b
3d0feecb
3cfc9f8b
3c5b4b2d
bca17e33
bc0be4b8
3bd16060
3cd32239
3cce9e70
399f9d75
bd0db275
bcb13f99
3c7c19db
bc50f51b
3cb588ae
3c060bce
3cf17962
bd0cb43a
3c9fb2da
bc1815c8
3d0c8a1a
bce8a48e
bd21655f
3bfbb135
bc2937c4
3ce089eb
bd06e6d0
bc83a8a1
3be3b4cb
bcd3148d
3c8bb2aa
3cb93b12
bc410ca5
3ac28b00
bd0ff47a
3ce6c580
bcb4bc7b
bca9cef2
bbd59357
bcffaac9
bd1e04f8
3ba861d8
bcf7a1ca
bb44b25f
bd021538
3c0f8142
3a652473
bc8e1cc2
3bf97362
3c5814a0
bcfc4b7c
3c7bee50
bc9d4a7d
bd15d43d
bc844ba4
bd03b695
bc14c530
3992b2f9
bcf845c5
3a20f734
bcf3748e
3d08d80f
3bcfcd5e
bc5aabfd
3c188b5d
3c67b745
bd18c54a
3cd1cf3e
bd10090c
bb6baee8
3cb1fd0b
bccbe7ad
bc69e962
bc5a6f73
3c9e95d3
3d0d6d4b
bc49ab11
bc87583d
bc4124ab
bd01cf99
bc8b7d24
3cc81362
3cb54bd9
3c01bb28
bbe30fd5
bce2ed4f
bce3ce9c
3cf6863d
3bfd659a
3ba7d6db
bc09d2db
3cde2b87
bb6e4ea5
3bc5a3d1
bc9865f1
bd0b97dc
3cc521c0
3cb8d512
bcb2fa60
bc773343
3c4b4be0
bc98ef95
3d4a367e
3cbb13fa
3b6caea1
bcc48de0
bbc2f299
bcf4650e
bc026c7b
3b5b3798
3c8f1cab
3cb6e887
3cd78e63
bc02390f
bd08fc93
bbe49bea
3b1505b9
3c8f2bfb
3c016bb6
bcc457e6
3caf8f28
bcdc0b32
bd0cae43
3c217852
3c5c08fc
bd2cf4fc
bce5358b
bc85bcdf
3ad06f48
3cad3004
bca3e59b
3cb326ef
bcfdbaeb
bcc17762
3c2ac2c5
bd4310a0
3be08f42
3c4eb51a
3c609906
bc6c668a
3ca22b1f
bd141da4
39e81813
3c566489
bcbb3f7b
bd00e067
3c7dc9c7
3cf734db
bca7e2ef
bd1d621c
3c744709
3b6f3db4
3cd4926a
3cf7da91
3bfe1944
3c1019dd
3ce00d72
3d20e046
3b296193
3cadd4d1
bd2b429f
bcea0ccb
bcd24467
3bd20c35
bc8479e5
bd0c17d0
bd093cc1
bc2d309c
3c01d28c
bc75b8ec
bc90896b
bc91088c
bc8c4f2f
bd01b86b
bc1b7656
bc02ec2f
bc6723fb
bcad3827
3c16a458
bc967bc5
bc01fb4d
bb6c9a6a
3c88504b
3d34ad61
3cef1d87
bb1558f1
3c886fad
bc851ff3
bc782c46
bbe5bf9b
bb6ecbd2
b9dcf957
bd2f249c
bcbff498
bd14bd55
3caf08d0
3d19140a
3c571b1f
3d090677
3c204174
3ca1360a
3ce3f353
3ba5a4d6
bca8a78b
3ce7a691
3c893e05
3c7dd49a
bcaf41dd
3d151b92
bb9126e0
3c6d36ac
3d3d8708
3c62dbd4
3d09ef6b
3a347815
3bbc9637
bc9e6ff0
bcea16a4
3bf81e1c
3b76055b
3ca589ec
3accdee8
3c17e3b9
bcd3efb1
3c0db248
3d025d95
3ce371be
bca05d38
3cfc1178
bcd7a088
3bb00640
bd111e65
3a53c592
bcbb8fc0
bb2c4cf9
bcd32f8f
bc9eb2bc
3c6c3a39
bc0d0154
3d134801
3c7c6736
bc954a38
3cbec9b3
bcb2bc67
3c9dd3bc
bbfbce94
3c55c15c
bbf933cf
bc03e80a
bc0d45f0
3cdd6718
bc3784f6
3d1df473
bc43da6a
3d0f3c5b
38541f3a
bbd20402
bce2c300
3c8166f3
bceb15b6
bba6ea59
bcf91de6
3cbbf43d
bc83bda8
3cb5769e
3c944a53
b830b2bd
3ccd9e60
3c840b1e
bcc1728d
bb00a7b4
3d2e20ec
3c133d59
bc0db490
bc81eac4
3ce40618
3cb08242
3c644112
bc6c0271
3cb34e8e
bbdddf60
3c588ef7
bcc1e41c
bc46f826
3c5a49b2
bcbca104
bc1eb554
3c940a73
3ceb80f8
ba882d78
3c3222f5
ba9e7586
3b32d592
bc5f580e
3ce580bf
3c4e2ffd
3c8699b5
bcc3e74f
3bc286e0
bc979893
bbd42659
3c8bb945
3cff7ca7
bcaba051
3cacd64e
bc8bcfaf
3c6346ba
bbbd7ae1
3d15cc4c
3d134ee4
bccefa2e
3bce79c2
bb413a1e
bcb23115
3c1ce328
3cc690dc
bd00f62d
bce160de
3d0e1407
bb80e9f4
3c2b0334
3d1cacd4
3cc0b252
3d363600
bc5aabeb
3cb67657
3c9dc231
bbba6176
3cb8033e
3c783551
bcebe8b6
bba54300
bc00af80
3be7725c
bc8ebb1c
3d2300ff
3b946318
bc9ac602
3ba38ec2
bc78c298
3cf9ed27
3c934586
bb7e17ff
3d08499b
3cadab80
bcc603d5
3cd1a702
3ccb8f66
3ba83586
3ce3412d
3d306b07
3bb0f4e3
bcf3d786
bc8bfe08
3c9c119d
bbe556b6
3ccf9c9b
3cfa93c4
3c75d182
bca2c08b
3d0885a7
3c8c305b
3d2017a2
bb7f2fe1
bcd20900
bc8b80ec
3c0fcad8
3d01bf55
3c81567d
bcb45a2f
bcd56164
3c867b4f
ba38c7f7
3b980c7d
3c9d7e03
bc20eadd
bca61e12
bad878cd
3b5caf8f
3d05c32f
bc83df2a
3cfac00b
bc8dfa5d
3c20822d
bcaa0060
3cb5dc0f
bc2dae92
3cedf652
39c4883a
ba05a438
3c123330
bc7304af
bbdffcbf
3cafabbf
3befa5c1
bc4aa34f
3ca53750
bcfe36b3
bc703541
3bf1a24d
3aa69a0d
3c8e8326
bb5ad92d
3bd6fa96
bcbd337b
bc843051
bd017710
bcfae1fb
3b6f39be
3c8d462e
bcb6325c
3d3fbbca
3d2a6c57
bc0bf005
3d2c8523
3d15a2e0
bce0e006
3d1e3292
3c452761
bcbd75bd
bd02ecf1
bce29b23
3bef5b40
bcc86853
bc1f8918
3bd50050
3cbb6cde
3ce4cb52
bd120fc7
3c62420f
bb941a51
3ca2f181
3bcfeab6
3c8eaf88
bc854aa5
bc5ff8fe
3cbdbac7
bcde63cb
3cd9471a
3d2b2ccd
bb4d3667
3d2a6061
bb54eea1
bce3ee60
3be06de3
bcc7f642
3a5697ce
bd034013
bca717db
3c6f3e92
3d0eb85c
3cc6556d
3c12423a
bcd225ac
bc578fab
bc94d47a
3d02b94f
bce05653
3cec0d9d
3cb89325
bbe5788a
bce1ba4a
3cad9e03
bcde54a5
bba90837
bc49e624
bc0b9f30
bb5a773f
bc8507d5
3d28f2f3
3d07179d
3cc18ced
bc58d10c
bc33f603
bcba23c8
bce28f73
3c457dfb
3c96182e
3c9ed0da
bcda327b
bc8e2e7f
bbeaf524
bcbfda58
bc006c38
bcda609d
3cea602b
bcad2e3d
3c8a1c55
bd183cd0
bcda760e
3caff998
3caa8120
bae9cec0
3b7b3659
b9e600f2
3cfeec69
3d059832
3c52bcb6
bcadca02
bcbbedbe
bc7547f4
3aefdf5e
3cd3e92e
3d0e72d7
3cc651c1
bcfa3153
bcb01ffe
3ca09f34
bc945c60
bc895abc
bb4060d0
3bebb6d4
bc9c6c43
3c20a920
bb0afc03
3b64f2e0
3c501fdf
3cbba55f
bc960f8d
bcbb24e9
bd145d65
3cba3c59
bcb8eb0e
3b8f1c4e
3c98c4dc
bb98f9ff
bc2e8d5e
bc781eb3
3c916359
bc892322
3cc73bfe
3ce14cb4
bd01c2ea
bbed90f4
bcc09a9b
3cdd3e47
3c5b4f20
3aa723c0
bbce0840
3c13d5b8
bc952973
3c2b3f79
3cb44fa1
bc5c2e06
3c88a65e
bc1709c6
3cb8199e
3cc4168c
bceedba0
bc4738c2
3adf03c1
398023c8
3cc8d47d
3c95ad59
bc5c9303
3cc1503c
3c33fb29
3cebfa9f
bc099b80
bc87bf2b
3cf2cebc
3c485248
bc888a22
bc704fc0
bcbbc51a
3ce38dd6
bd088b0e
bb6afa55
bcef12d4
3c738cb8
bc40a4ae
3c84a2d1
3cd2ce8d
bb5d2e77
3cd1e6b3
3c4145eb
3c8cb889
bbf0033f
bc195f42
bd0da383
bbb04f6c
bca7edf3
3d0463c4
3c4ab8f1
3c6e9190
3b832bf0
3c737bfe
bd0bcc13
bcd8db20
3c96d6e3
bc588104
bce09f7f
bc9fc86e
3cdeba4e
3c8929ae
bc257152
bd0b49de
38d963a0
bbc87ba1
3c653cba
3cc2ad39
bcf9a65e
bbcf2813
bd0f9047
3b6078d2
bbd3ed1c
baafc4c1
bbcb69e3
bcf67228
3c773813
bb4f1fef
3cb781a3
bcdc0a0b
bcdb79a6
bba8537e
3ad002e2
bd09be68
3ac9c21d
bd0f31c0
3cdfd6b6
bc85e903
3ce5f79e
3c2e05f0
3babb3d8
bd120277
bcfa0302
bce25f90
bcddce67
3c96e59b
bc6b4f1b
bd12e317
bd051407
3c2c350e
3ceea7bb
bb3ac2e3
3d09cdc9
bca5f42a
bc562bf0
bb1c6d83
3c0a3ec4
3ca2dfaa
bbc6d6ec
bc69393c
3cf4ec91
bc28835d
bc46352a
3cc545b2
3cf2690e
bc7b4054
3ccde492
bc2cf6c0
bc904357
3cb95572
bcad7a33
3c3a8048
bce12670
bc411278
3d00a7e9
bd10247f
3be87790
bcbdb3b5
3b028088
3a829b03
3cbb9195
3b03b382
3cae2a0a
bcbd164e
bb668fd0
3cbc7788
bc8fdfba
3cbb1cd6
bd01395a
bcfdf5de
3c9976c0
3cee3452
bcd74dae
3cd5b13e
3c8c49da
3c797050
bb759230
bd11ecb6
bccdeda3
3d0ed7e9
bc0e0c7f
3b8c5372
bcda432a
3b1a1231
bc6e8299
3d091e17
bd0c166f
bbc20573
ba1e81d6
3cd790cc
3ce5b08b
bb9e675b
bc7ec577
3b94d808
3c59e31b
bbdf62a0
bc634715
bce608e2
3c3bf01c
3cfaa426
3cc4883a
bd05828c
3a5a7940
bcb9e035
3c38937a
bc693e21
bd04f823
bc1d489d
3d07ac2a
bccd1f14
3c0df6bc
3c099911
3d028e98
bd0d8a6d
3cfd32be
3cd2239c
b8810ae0
3ca6d916
3c442b6a
bb469336
bc04ad8e
3cecb112
3c7606b5
3cc2f283
3cc76e9f
3cdee301
bccdfe64
3c8378c5
bcf5482c
3bf34ae0
bcaa04bc
3d0f6663
3cd58a37
3ce2d03e
bd06c549
3bd7c4b8
3c2679b1
bc599df3
bc766618
3bdb42e3
3bffee2f
3cdb0e19
39e46e85
3ca6170d
3cada6bd
3d0267f0
bc562f3a
bce76a3c
3d040581
bc34960d
3d1d1e5b
bd0326f3
3bfbd967
bcdd393a
bc6ca300
bc0aa27b
3d110dfe
3bc193b0
bca2fd5e
3cec6773
3c722d41
bc69f87b
bafbad9c
3c3fcead
bd0032a2
3cb154c6
bce412d4
3cac7ff5
bc8eb71b
3c35a961
bccf4686
3c063413
3ca24aba
3c6f3dff
ba0b7be6
3d09daf6
3d082ca8
bcc771ab
bc00f76b
3c119f0c
3cff2056
bcae2d68
bcdb64be
bc63e137
3c9033c7
3c35aa28
3bd6fc38
bcd26f6a
3c188194
bb181522
3cd8294a
3cf695c1
bd0bf1fd
3c2948d4
bcbb3adb
bb994e3f
bccbe24a
3bfcf970
bc5c2b62
bd181be1
bd822b9a
bd1bd6c8
bcd55a54
3c7dbd32
3ca1eae4
bc974251
bd11dafa
3b4707cf
bce3bdf4
bca9bb93
3cd2e365
bc61d1af
bc1d0653
3d0ea570
bceb582c
3be23842
bba19011
bc0ac381
3cd8a11c
3c3da9f1
bca06a5a
3c46273e
bd405488
bcec3e9e
bd4c76f4
bb74b62d
bc1a18a7
bb9560b5
bd4b88e6
bd0275a0
bc35fd40
bcc34208
3c8d9e45
3cd0bcfa
bc70584b
bcbb9aee
3cfe755e
bc0ed9b5
bc848b05
3c98cffd
bb8d79b2
3cdb9c06
bba58151
bc033451
bd0d7bec
3c4c5c33
bcf684e0
3cda15f9
bd01c7a0
bcf1fa7c
3c81896d
bcc06fc4
bc82ad68
3a59f6e9
bca87ca7
3c94fb64
3cbf473b
3cc85203
3c8bffdb
3c69ea21
bd08e375
3c57d147
3c1c3ad3
bd0c2403
bc7dabed
bd09da53
bcec39b4
bcdf9283
bb46f213
bd00584c
bcad7276
bd0adfd0
bd0eb93d
3bcd3721
bcc7526f
bcab729f
ba61e0ca
bd05e363
bc99e8a4
3bf6b30e
bb8eea97
3d47cc4c
babcb088
3d0fc44f
3d4694c7
3c11f0fc
3cffbc2c
bcb06b97
3cc28741
bd03e898
bc140a77
3c4ca0da
3b4d16ef
3c545fe8
bcf99592
bc109310
3cae69dd
3c7d46f3
3d0fcdc0
bb971c01
3cb7fc24
3cceff47
bc814b8f
bc8dbc8c
3c42790d
3c29fdb5
3cdeba14
3b6e1bea
3d0d4d89
3d7d62c8
3bb2d694
bb324515
3c07935c
bc12d13c
bc014831
3bf9eea1
3d0b86bc
bd048b7d
3c050c66
bcf9c7db
bc842a58
3b802d63
bbab57de
bc37380d
3cb33984
bd04fbae
bc7abca6
bc19dc33
3c02a8e1
bc9b0000
bc7c9ca6
bc3ba57e
bcb8db22
3cbd0a19
3cfad87d
3d38b0c0
3c807612
3cfd9b90
3d6d1468
bc891aae
3b839a8f
3c30db07
bc87f83e
3cadce17
bcb5b14c
3d2660a7
3c852cd3
3cd36fbf
3b10d93e
bbf61b2b
3c45acd0
bb47dd8e
3d043113
bc95c2ff
bc470f5f
bc2e2181
3c6200a0
3cac7c53
bbffee37
bc26b1c9
bbbe13fd
3cff93c1
3d04e5ed
3d2b745d
3d7187d9
3d88ade2
3c174400
3cafb2aa
bab8977e
3c413032
bd031a14
bbcfb413
3ce27543
3ba671bf
3cc777f6
3c1d7978
3ca63b2b
bb24f418
bcf645ad
bcef3f5d
3d05b5c0
3c361cbe
bcd1ae6c
bb9c39a7
bc39d439
3c8eccd6
3d10b8f7
bcbffce5
3caf817f
3d257404
3d2b82d8
3d3d5c78
3d6325bf
3d6cd59b
bc49e223
bcaeabe8
bbdea798
3c867a02
3d4146e2
3c75eff7
bc14e733
bb85c870
3ceacad4
3d48a4f9
3d1cf622
3c1f7361
bba3263c
3c34da6e
3cc6cb1a
3ca5c004
3ca9c162
bca1ab70
bce5165b
3cf1e300
bbe02a50
3c020186
3cc02491
3d2c5abe
3da2dcc8
3daa64e0
3cec71c2
3d4985f5
bc206e63
bc49f21a
bc7c6b74
3c5237e6
3c0a78a3
3d60447c
3d5c29c6
3a4bc999
3cbe2517
3d33f278
3bb2bbfc
bc8daa8d
3ad44a1b
3989c1a2
3cf820a8
bcfc3c33
3ccc08b3
bce5fcb5
bb0db2a1
3ca9ae00
3d1090c4
bc85ddb9
3d08a04e
3d279204
3d9de345
3d687b0e
3d1efe19
3d27f725
3c2104cf
bcda3bdc
bcd4f40d
3c825483
3c989179
3d0e80dc
3d834d55
3cc593c4
3ca781c9
3c96107c
3d1fed2a
bb3eb627
3b96535d
bcb88493
3c64b064
3c9bdc4d
bd0e52f2
3cccccaf
bc1ab389
3d0699f0
bc31a0b9
3c218f55
3d5bb21a
3bff1566
3d0b00e3
3c9d5350
3c9358d6
3d128f3a
3cc66359
bbc8dbe5
3b38bc3b
3d0ed71b
3d834ec6
3d4e0eb3
bae11b58
3d486f9a
bc24c474
3cff1535
3cae2c6d
3c9008fa
3ccbe290
bd04c37c
bcbdd113
bb7658be
bbf69d77
bc0f66e3
3cc37916
3b98682f
bcbc674d
bce05771
3a7b40c2
3d19093d
3cafff8f
3d5d27ae
3d2d8962
3d258ef3
3d1ab81a
bac17a58
bbc28cbd
3cff60d6
3c44a2d1
3d29019b
3c8e9450
3c1248f2
3c1d6201
3d183d56
bc8e8b55
bc9ae1a8
bcb38a50
bd15fd7c
3d0ee4aa
bcde6d46
bb8ed880
3b4d68a3
3c11b50d
39ec70ff
3bfa8d06
ba2e003f
bcda5f83
3c95d3dc
3c8bb94b
3cf03846
3ce92e3d
bc5deb7c
3cb0299a
bcaf8cfe
3c4912ea
3a8c51d3
3c9239a2
3c5ec457
3c9e8425
3c1f2796
3b9f9901
bca2d82c
bcf2925e
bbacc21b
bcf2f44d
bc65198d
bd046f28
bc2a9da1
3c936829
3c1c7dc4
391f605e
bcb4a39a
bcbdc21a
bd0056c3
bc691604
bc70946b
bcbfde7d
bc393b38
bc9e22ee
bc1ba493
3c4d2cea
bc8ccdc6
3d07320e
3d2abc94
3d04329e
bbce83be
bba6b752
3b249862
bc962918
3c2564ee
bca4853a
bc541744
3c622e6a
bca4a930
bb044709
bb21cdcc
bad59c09
3c0c180f
3d0c3b33
3a802fb1
bc09782c
bd42055f
bd1600aa
bd393763
bd23797b
bd20ce06
bcf2a6dc
3cbc63d7
bcc6c041
3ca2092f
3bcf8784
3cbf7ea2
3d10abd4
bc4b760a
3d00cc8c
3c8c1aa0
bc87d151
bd002f58
3bf257b2
3c4f0f93
bcfc25d5
3c37d557
bcd3a518
bc8cb965
bbf9fb54
ba5f909b
bcaa5465
bc0bb946
bcbdf1a8
bd30dc2d
bcbf53eb
3b018f9f
bd6dc136
bd4c79d4
bc9361f1
bbb73b7d
3d24d1c0
3d0b0929
3b88e84a
3d1f170e
3d4641bf
bc47bbcb
bcf0b5bd
3cad8ef7
bd3f00ab
3c599fc6
3c51c125
3cc0f976
bbf08ee6
3cd79c6b
bd03a15e
3be71bbd
3b7f0605
3ad3686e
3bbb7af2
3c8baab4
b92d972f
bd245f2b
bc2d5a94
bca66e31
bd6bbfa0
3a6b579a
bb9af299
3c2d2818
bb0de0fc
3bf191b0
3c183337
3c3b9c66
3c8c9a5c
bc83b5d0
bcf543e7
bc8d6c59
bcd22d5a
bcba2119
bcd940a1
bc785470
3ca94537
3b7f66f0
bc951b5d
3d0fe4a3
3d0e78de
3c9fb231
bc59115a
bce32524
3b789276
bc8a3628
bcf11872
bccb770f
bc9c25ec
bbf8a4ac
bd68980b
bb2271ce
bd1e535a
3c9811a8
3c6c5cd5
3c708abb
bc9a534c
bcba8b9e
bb1a158f
3c64289b
bd0e0f87
bd099202
bca7b807
3d052c5b
3d0ac2b1
bcb33707
3c9b8098
3cbd6e92
bbf65894
bcc8e293
bcaf4e8f
bc5593c5
bc7e0ec8
3c90a6d8
bbefb7f8
bd21d6a0
bc94e504
bcf21062
bd28b0c6
bba2257b
bd389608
3c5eba14
bc13964f
bce3d474
ba50d1c1
3d132255
bc8d45ad
ba802c07
3d139757
bcc29ebf
bcc96dc6
bc19586f
bc8682dc
3ce17d28
3ce30f2e
bd0dd23a
3c8b4e28
bcbbcfe8
bce264ee
3c0c2d47
bbfe8bd5
bd01ff9f
bd16d7ea
3ce2b332
bcae6dce
3c8a5883
3c53ab89
3cbedfdb
3c0a4892
bc924ba0
bc7940c5
bc7fa0bb
bc2d4368
3c475448
3ccee877
bba75345
bbc54bee
3cef987d
3c0a6a57
3c4e1af0
3c1bbaff
ba5306f0
b9abd3cc
3c995bbe
bcb0d32c
3d0ea23d
bd0a7978
3c028e77
bc63d818
3c13d18a
3b3a715f
3ce1708c
bc751ebd
bcc9d303
bbd828fc
bbb6f1ff
bcd16b4b
bcaf4813
bc41daa0
3c890a50
3c038a49
3c48f27d
bc2f1f43
3c79607b
bcc138a6
bbd04548
3c5cd8dd
3cf315ad
3bdd22a2
3bdd02c0
bcc5d567
3c762174
bb0e5d80
bc777f1c
39022700
bd098d56
bc2cfb34
bc064055
3c852403
bc29ee97
3b6008bc
b9a2a456
bd05c4f4
bae18777
3ca60c07
bd029698
3c1ce68e
3d16f5b0
bc8f1bf6
3cc9033f
bc7a7445
3c99915b
3cd0354a
bcb3aa62
3c59d1ff
bc815fa9
3cd76f12
bcfa7e04
bbb8cee4
3c9bbaf6
3c0d5f50
bcc9635a
bd00e32d
3c883f12
bba72b17
3cb6afd2
bd111228
3b7db73e
bc1ac8b0
bcb37167
bc0283be
3ca958c9
bc56dca9
3b949e18
3d08099d
bcbb4074
bd121aaf
3c95c5c7
3b5daa7f
3c7cd3dc
3cb33a6d
3cdb173a
bb851db3
3c83afb4
3c9f8a0a
bc3730dc
3c352840
bccccd00
3d00c82b
bba62d94
bb287530
bc90fe5c
3ae3f860
bccab6a3
3d12481b
3bf8fc40
bce2073a
bbd56aa4
bc12666a
3cf91cf2
bcfe376a
bcf2238e
3cff9d34
3d070211
3b6033b0
3d10338b
3c901888
bcbb7d43
bc57a306
bc0c8cf8
bcc35508
bb5d4c80
bb430b00
bcd63170
3c8586de
bcfc1af3
3c86fe72
bb153660
bd0e381f
bca42a7e
3c2c3649
bd10aacb
3cdcbe46
bd033265
bc62c99e
3d04d055
bcfb9ac3
3ce2b3a3
bca8ffd8
3d05719f
bcc8649a
bd05507d
3ae5bbf3
bb7bf1dc
bafa4019
bcb202bf
3c4c2249
3b5aabd3
3b8047c6
ba82d14b
bd04b232
bca0235c
bc5c8dc6
bd0e8ac6
3c7482bc
bbc1d1dc
3c97efeb
bc7cf8d8
bcd17570
bd0c5424
bc7e7a8a
3c9f79e3
bc95add5
3af72a5f
3c7273cb
3ce94132
bb0d2be4
bbad15d9
bcf2c841
3ce63bcf
3cc25a96
3d18a6c1
3c810207
3cb6cc4b
3cd2f7f2
bd0916ab
bd0932c4
38ba6f5a
bbcf6d2b
bc3eb815
3cc93652
3c2d7cb8
bc443b92
bd01aa3b
3bc4982e
bbcabde5
3cfd4118
bbef171c
bb3a9656
3a9922e9
bcf70733
3cc019bf
3d033551
3c776cda
3cba8cff
bd11533f
3a3c8168
3b743308
bc687729
bbe58f93
3d2955cc
3c75ec9b
bcbce223
bc8fa9b4
3c0e4ad1
3c0ecbf7
b9b7e9c6
bcda43ff
3b80385e
bcfe5f23
3a827c00
3cd69efb
3ca7966f
bcfdd6a2
bb4ff283
3cf292a8
bc9aa844
bc833133
bc9b9a2c
bcb204a8
bcd7a5ef
bbdc368b
3c12d74f
bccbd209
bd110308
3cc567f2
bcb9dab5
bcd06c54
bc7ae321
3b2d6378
3d074ec6
3d04af48
bbc121b0
bce798ac
bb0261c9
3bd04207
b911adf9
3c396933
bd0c0b03
bc859783
3c89f132
bcd8a6dc
3ce7507d
3c8edc97
bd1473af
bc879012
3b2b3d03
bcd1205c
bc8a2a12
3bed6d8f
bcdafae7
bc330a31
bc579a87
bc75d12c
3c101b73
bc7277b2
bcf238d9
bcd213d5
bcc23df7
bc820994
3b1d992f
3a97e284
bbf76e4c
3bd33cf8
3cc0255c
3ce1f9c8
bce011b8
3ca26ae0
bbb2d91a
bce010df
bc85f63a
bbaf9ecc
3ce09a57
bc7dc191
39601d04
bcf628a7
3c581d66
3c1df8c8
bd40f922
bd3f06eb
bd8bb6b9
bc8ce836
bc3c6df6
bd047ad5
bd1941fa
bce1524b
3b0216f9
bcbe8f88
bb482207
3cc2941f
bc80a6c4
3b02e673
bcfd4f49
3d0d1a85
bd00cd3a
3b0415ed
3c8195cd
3c9aef73
3a615062
3d008e3a
bc80c1da
bd0aac1f
bcd82a84
3cce40c4
bcbffb3b
bc0587a1
bd5a87a2
3c36d1a0
bce063c1
bd315f64
bd385d4f
bc28c647
3c63c2ed
bc37cad2
3bad0012
bcbb3af2
3a218652
bbd561f7
3c123cb0
baa89183
3c863086
3cdf4310
3cd41782
3c851394
3c86bd23
3bad9f22
3c8042fb
bc882ba2
bb7302e2
bcdc8617
3d16adc8
3ad07f0e
bc5d9d97
bbe676d1
3cc03071
3c966092
3ccd7a5f
bc9bc52e
bc9af136
bccc8648
bc2d132e
bc29a641
bc96a3e1
bc9a2d09
bc1e7c85
bd41abd2
3b79a10f
bc9cd352
3ce67490
3b93c5f0
3c5dfb0d
bcf7a0c0
bd02ae27
bd07c34f
bc1922ee
3c8d7abc
3ccd6247
bc8bc9c7
3bb3a2d2
3c27dc15
3d228ec1
bb56d9e7
bb6dfe2f
3c23be32
3d1cdd60
3ccef60c
bba15d25
bc2db37a
bc138797
3c677d8c
bbc51148
3cba0a92
3bdb2ce7
bc901cfe
3cb8403b
bd23baea
b900d8d7
3cafc791
3cebec77
3ba0f179
b99f8128
3bd63293
bbb18ae9
3c674cd3
bce24495
3d30e5d9
3d4d5ec5
3ba12eb3
3d30c032
3d046ec7
b9e3b157
3d150273
bb4e0082
3c7af338
3d3128af
3b13988b
3d57072e
3c880cba
bccc9b48
bbea6817
3be39c71
bd004eeb
3bc30169
bcd7a22d
3ce566b3
bc834fbe
3cae760d
bcc849e9
bc057537
3d0f60eb
bc973900
bc38b4ab
3cf30d4a
b97d93b6
3d55c9ab
baa42ec8
3a742062
bab65d99
bca9b4e3
bc6b8f22
3c42748f
3c691189
3c993479
3b7372a8
3d442e62
3d47a8d4
bc40ed4f
bc9cc03a
bbe6e696
3c01eaf2
bd145a42
3c4b73e0
3c10ccab
bb2d4e32
bc745cb3
bd0ff466
3ccfdc58
3ccb8e42
bc93862d
bc9f267e
bc3a9dda
39667789
3d6f22ef
3d556bfd
3d749dd2
3b750955
bc85be95
bd1c0734
bb4de65c
3ceba251
3c79e57c
3d9b43b4
3d5ec660
3d0415dc
3ca0cc08
3b903087
bbdb3069
3cdc1c04
3cc54da2
bc24de3e
bc6a61d8
3bcb9ea8
3c6f4e4a
bcf819e9
bb814f15
3ca2fea3
bc495308
3cde7ad9
3cad38cb
3d59a379
3d5ad799
3d8af5c6
3cb86b6c
bb726b5b
bd04d7b6
bd28f5d1
bca1f50a
bb82a01b
badc7e21
3d9c3aa9
3d2baa3c
3d215608
3d04fe73
38e3b83a
3c4887aa
3cb0259e
bc6bedca
3c827c32
bae76476
3b9981ba
bc4beb54
3c859d4d
bc6d7117
3c5970a8
3c891aa4
bc301086
3d4610e2
3d468105
3d600b00
3ce3d6e2
3d23219b
3c968c1c
3c80c8fe
3c07aac7
bd35280e
3d172124
3d15aebf
3d2ead3b
3d273cb8
3d960cab
3b4e8444
3bf43165
3c966171
3cb5c52c
3d0c1fce
3cfdbe99
3c873b79
bcffa2d8
bd0763fd
bc9241b0
bb1b4fd5
3cee940b
bc939f5e
3d2b2a8c
3c794dbc
3d3de06a
3d4195b0
3d86dd20
3d7d4a1c
3ca7ff3a
3c701b46
bc9400a5
3cf7ff4a
3d52b541
3d8a3f34
3d964d8e
3d8452e1
3d6c2302
3c565764
3ca30383
3cd7d758
bcb758e1
3cfb5aac
bc8d1f0b
bc361028
bbb2c6d9
3cb78651
bb93d7b0
3cc88c82
bc5e80d4
3ca22997
bcc84910
bc1b1d70
3d5a9039
3c9baeda
3d6d80ac
3cad2126
3d3756bb
3c8f23b8
bc514da3
3d091d13
3c394f4d
3d07e94a
3d6ea18f
3d7d2659
3c7141bd
bbe2b944
bb5dc176
bc19e3e6
badbc11a
bcb5b3c7
bbf51e8c
bc997748
ba58d34b
3cd994e6
3c21ba0e
bc187c5b
ba912d01
3bceb187
bcf60749
3d0c9a83
3d07cff1
3d4dbbe2
3d323c19
3c85b0a4
3c510a01
3d05dc42
3bf7beee
3d707861
3d72c533
3d215bac
3d4e5d5b
bc67cc9d
bcb229f6
3cd50141
3b974b1c
bc4f215a
3c6ab9b4
bc5f7d26
3cbc27ea
bc399142
bcb2b49d
bbbf50e8
bcab430a
3c100ca9
3a76ace6
3c578fdf
3c4241d0
3c162e5d
3c78acb2
bcafecda
bbdc22b0
3b42e259
b9bc86fe
3cdec814
3d16e8b2
3d4164f7
bbadc092
3d35148b
bbe7ca50
bc1b54f6
bba6e076
3c2dbf94
bc9e531b
3b6abf76
bb08e213
3c6cc9ae
3a9b4dfa
3b472f39
3b9ccff6
bcf6497c
3c1ca001
bc674328
bbc09aaf
3c68ce32
bc71fcf1
bcfc8c74
bd352d3b
3b768e21
bca01249
bbda57fb
bd06f684
bbc11d6e
3c042ec5
3a90dd09
3d15d542
bc2fcffa
3d19704d
3c3e8aac
bd04a8aa
3c2f2b38
bd27fbcb
3c39d529
bcd9ffe7
bcdb7cf7
bbb5ce55
bbdcbe79
3d024bf3
3c29d6d4
bcc31b9c
3a1d25a0
bc88afbc
3c8cbd3b
bccfe2bc
bd543dc7
bd758e2f
bd111fbc
bd804ad2
bce539ba
bcaf1342
bc867637
3d1b3620
3d828c65
3d108cf1
3d39674d
3c0f7a0f
3c29e0c1
bcda233b
3c003d6c
bc44400a
bd1435d3
3c1016ef
bc2cab65
3b8db327
bc96d208
3cb4ae5c
bd0f3a6e
bd00bf06
ba5256c1
bcb4d879
bcbe24e3
bc953630
3c2ca928
bd2ab44f
bd74a8d7
bc560c6d
bbf8b903
bc3766f7
bca7e865
bc21af4b
bc0f7665
bcb638f6
bba11f6b
bd1d5081
bd254729
bd2066d7
3c265018
bcf6ad46
bc152fc2
bc5b0bed
3cf1f82d
3c39d3be
bc193256
bcb21f31
bc9c723e
3cc574aa
bb8e390d
bcd50e76
bcbe3114
3ccb59d6
bc235644
bd6f6b99
bc589d93
bd849b8c
bd81a0ad
bcc29654
bcd6eacb
bb0047c0
3cd5df94
3cb5324c
bc6759a6
3bfb3ddc
bc96f216
bc1966d7
3c8a3a5f
3ce63b51
3bcdd5a3
bca3f3e6
3aa6e652
bb81968c
3bf4d7a1
bcf4c516
bc9f9b4e
bc2bb406
bc9eb244
3c9aed07
3b01e384
3d00dac7
3bc895a0
3c7da6b1
bd53003b
bcdc0395
38e07f62
bd72dade
bc955e6f
bd31eea0
3c40e2d6
3c039c26
3b948169
bcae3c44
bc92e286
bcf891af
bcbfa4d8
3c6c788a
bbd0af4c
3cb97be2
bc80277c
3b277f39
bc45d6df
bb9fe5a4
3c6abc88
3ce131fe
3c9cc931
bcf50fa3
3c2ac72a
bd0d7652
bcd08e10
bcfbb2f7
bc0ccce8
bc5c0f54
3b88cf59
bc0be908
3bc6dcd2
bc812c38
3cd99c34
ba044845
3d1144e2
bc7d12ac
3a66af5a
bb3a9ea7
bb2c03e1
bbd50227
3cae6c8d
bc804c65
bcde9180
bc713904
bc2e21a9
3b729070
3d065c0b
bc6375a6
3c9d9686
3d0d8c5c
3c32e472
bbc18906
3cd26dd3
bcdabca8
3d048a4b
bc8446ec
bccba717
bc84fa7b
3c84a6f6
bcc5553e
bbabd660
3d0d4160
3ca1cb97
bc39c502
3cff6d76
bcf78153
bcf2fe4d
bcbf8053
bcbad3c6
bd06557f
3cae1d89
bb0ae034
bcc83956
3cd93750
3cf3560a
3cf01852
3ce58626
bc02a7d8
3c2180bf
3cbca17b
bcb8afad
bcc9cfdd
bcdd9c2b
3c861ff0
3d1731d0
bc455ae0
bcc69c6f
bc5b45be
bcf79c1f
bcfa8b39
bc445418
3cc5708e
bcb2f224
bc9abc2a
3bf139b3
3c5e78bc
bcc4fb92
3b937788
bc7f6fb6
3ba3d044
3cdca74e
bc9d34b5
3c37b684
38dbf200
3bc5b908
3c084d94
3be72eb6
3cf0ac4f
bcab9d83
bd0dfff0
bb6f6ec8
bd08c4f9
bc73faca
bcc9b09d
3c9cf364
bd094a64
3d011f69
3c94b008
bb9d2815
3cd82e07
bcfb4861
3cb8630a
bab7cd81
bc9ce1be
3c60ef59
bd02b666
3cef1582
bc966437
3d09949d
bc959913
ba691540
bc4cee8a
3c161b98
3cd1512e
bd10ba60
3ce20182
3ccb86d6
bc9a1b4e
bbc7519c
3cfb54f6
bcbb7f15
bc86a1c5
bcdc683c
3cc3961d
3cae9297
3ca26858
bcdc25b5
bc40ce1c
bc7cd4dc
3c0fe0b8
3c9622a6
3d0f7f57
3ccbad9c
3c9190e4
bcdfb38e
bc18bbae
bce60e3e
3c344200
bcd87cda
3cca6af2
bc818167
bd0ab368
3d052c3e
3bd7e4a8
bd08e91f
3cff8a10
3cb4250a
bbee25c0
3d04e5b2
3c254a97
3d04e758
bcb9c64e
3cf267bd
bc8566e5
3cedf054
bca38ddd
bc7af062
3cd32c93
3c88a0b8
bcacc31d
3c2b2b94
3d0c5f52
3c1386c8
bc7e29e6
3cc20960
bcf5b6e8
bcf71b25
3cb8cfcc
3bb03ccb
bbbfa2d9
3b4925f2
bcfd238e
bb8c5604
bd09e0d8
bac24c08
3cd8fac4
3d10611e
3ce014b1
3c9865ad
3b8e1aa7
3c7cd36f
3ca97d3a
3c5e7b6d
bc80d399
3cf8973a
bcea36ad
3c7a2477
3c8d64d8
bc5177b6
bd01d7cd
bc96c8c9
bc47d540
bd09364c
bcc212f0
3d07897f
3c6d2318
3b7e2859
3d123728
3cb757ed
3a3729cb
ba27989f
bb9eb6f6
3b58a74f
3c2070ec
3c1b1fe2
bcf92ab2
3c189ceb
3d170948
3cdad149
3cf2cf04
bbfab8b6
3d01e92a
bc9e6c31
bb95727a
3bdb451a
bcf557e1
bc29cbb9
3bde1145
bc211f34
bd00cb7a
bcc0aaca
bd0a6c32
bc7a9f46
bc657841
bd06bb28
3b20e855
bc672171
3ce2856c
bcb223d1
3cbbe529
3ccbe8e0
3cfba932
3be9ad6a
bc2b6960
3aab40af
bc9e8ce2
bcedd887
3cb848c2
3d3381f4
3d2da895
bcaedf19
3bd00a5b
3c54e8e7
3c8a3e8e
bd0c7ee3
3cf1159b
3d0422b2
bd0da6c6
3d01a1b3
bcb21602
bcfdc9be
bb8ff780
bce3c1a5
bcff09db
bceb487a
3c34b724
bd1fac21
bd04d90d
3c2c4315
bd0298a5
bcb4d3e4
3cca423a
bcb11209
bcb4e454
3b8b4d0f
bc545c2b
3b9b59e6
3d0960af
3d47c74e
3c4dd86e
3d1167b0
bc6480d5
3cc85579
bc6fd2ea
bc907e9a
3bffdc20
3ac48e09
bc8b0949
3ca2448c
3d11a262
3cece186
bcf73366
bb5155ad
ba5dc678
3cdb625a
3be351f4
bc52fbad
3a3e8818
3cd41b60
bc8113cf
3ab55bb9
3ca7420d
3c96f05e
3d0a5a8e
3d67378c
3b21b701
3c7de283
bc1845bc
3d1b9edf
bc8648b5
bcd9f862
bc21c74d
3c73f075
3cd040b5
3b44a4fb
bc910ad6
3c7a13dc
bbee70a0
3c8b4073
3cdb4d90
bc233bc1
baaceed7
bc8d3ff5
bcd42402
bcec5f43
bc917c5c
3cb1428f
3c1eae21
bc958f03
3d2a5c19
bc9628c3
bc27f558
3d1bce17
3d0354af
bbc66be2
bc066485
3be6b3ed
bb8c5a4c
bc7bc3ce
bcaa40b9
bb67a532
39d3262f
3c90b3d1
3ca14eaa
bcee68fc
3cb96354
bb532953
3c5fd107
bd15dcaa
bcc11576
bd1746f9
3aaaffc7
3cafc0c5
3d06bf3d
bc139d40
3d2e2a00
3d086145
3ce57311
3c6e877f
bd22e05f
3b94ae13
bd21ba77
3c9be3e1
3c08799a
3d0bae38
3c9770bd
bc8229f6
bcd17e6f
3b019dcb
bc1c8958
3ac73c8f
3c5c35cd
bd06532e
bc387078
bb17350f
3cef0b65
bbc68c82
3c18aa78
3a827fae
bcae7249
3bf3437f
3d352e9f
3d0a3d03
3d4aa9ef
3d01aee2
3cd267ee
bc3f414d
bd06d9a9
bd3626df
bc8f3d0e
3c0e3330
bc21d445
3d1cf1c8
bb38c947
3cadfc2f
3c798f4c
3c8cc8c5
bcbaf4be
3cbf7d8f
3cfdffe4
3caee193
3c02c2b2
3b93fe72
3c4e0da9
3c74d921
bd1c76e3
3a002fae
3d1bbd66
3bed578e
3cda1926
3d9ccdb1
3c141acc
3cea14e7
3c5fb81a
bc295a91
bd040d16
bd50808f
bd5b78a5
3d00bb68
3d077508
bba568b9
ba8b0ff3
bc767db5
bca2f7d9
bc8b4177
3c09c38d
bc73d59e
3c5d5d71
3cd8fa9f
bc8d1c0a
3be6035c
3cd9fabe
3cd748ad
3b934e32
bc1aa7b5
3c52f03c
bb96817c
3c077c65
3d27240b
3d966b80
b9ea45f9
bd1c8dd1
bd69b071
bd70209e
bd66b5e5
3c8efd95
3cb465e1
3d243a81
3d2993e5
3c13183e
3d108702
bc6fe6f7
3c91016d
bceb2663
bc8deaa6
bc43635c
3cb5cc59
3b001161
3a9631ff
bc77daa5
3cc35fce
3cd1870a
3c3ac40b
3d0214f1
3ceb4ef1
3cd2ff7e
3d8316d2
3bfbc598
3d2a78f3
3bbd8e38
bd51cafa
bd594e5e
bc8a8e11
bc7850f6
bc8efc30
3d40a658
3d5df0dd
bc19d470
3c92f520
3cf2d654
bce628c9
bc6b0a9c
bad0ee03
bbd2ef5b
3ccc2432
bbb188fb
3b32eeac
3a4d7194
3c98608f
bbf699ee
3b24389e
3c466b58
3d816087
3d30084c
3d616abf
3cb896e4
3d395059
3c1a270d
bcc39e8e
bca53de5
bce07d99
3c93eae1
3ca60c2a
3c052696
bc84a3de
3c372a64
bc61db89
39bcbd2d
b9fbecc3
bca87b12
bc4fabd8
bcd2a157
3cc9a501
3a8ed14e
bd08f36f
3cb3ec8a
bc394682
3c1e1aa9
3d15b98a
3cbe48c0
3d6d60a1
3d030166
3d61158d
3cfc5e81
bb772092
3c6a3e91
3cd1d558
3b70e8aa
3d386f1a
bc8400d1
3c6dddb4
bc8d94da
3d01dc77
bc047dfa
bbc8b0de
3d0fd38c
bba2ad98
3cd0ac10
bc04cc89
bce95eb1
3c25aa3c
3c79b92b
3c5e2119
3ced2fe4
bcf2b174
3baf4691
3d285aa7
3d4a9773
3d949bfa
3d394b21
3ce78334
3d2ee763
3d8e6b49
3ce9707a
3cbbef8c
bb0b680e
3d24ac8a
bbae8733
3c97e906
bcc049a7
3cc6af33
bc7dcfbd
3d05d5a2
3d06a7b1
3b984639
3b8c612f
3af5208a
ba84329b
bc325053
3d0c4614
3c0d294f
3c85efb5
3cf9fabd
bc9a45b0
bc3a7e91
3c96c76d
3c2b4d62
3da37029
3d3498e7
3dab4fd4
3ce6bd0b
3abdd517
bc897ca1
3d0bf308
b9830878
bc16a9b0
bcb48beb
bb192620
bc6869b1
3d16d714
3c7a0c70
bb29b202
3cf3dae5
3d131327
bc06a719
3c8ecce4
bcfae251
35698092
bb6382ec
bb6ddd88
3c34d870
bc60884a
3c80cf99
ba6e0a70
3d7e75e8
3da3d33b
3ca5c68f
3cac8679
3bcb166a
3be2d902
3d2b8361
3c721047
3c8e1f75
3acfd849
bcd4a72c
3c18255a
bca76f67
bc365d0a
bc6d29e8
3c5471ce
3c4f59b4
3cc43da2
3c7ef8a4
3b8e9446
3c85338c
3b482619
bcfea584
bcf54f30
3c2c3c80
bcc38da5
3cefd16a
3c340ff7
3d17ca83
3d8130ca
3d8308e0
3ca31f8a
3c4916af
3cc066ed
3d06cfb8
3c6c9339
3ca1422d
bc0a8cb0
bc096e5b
bc803554
3d06d02d
3c50a63a
ba09032a
bc8b76b1
3d18243a
3d05bbca
bcb6702e
bce7326f
bb1e0b30
3ca3742a
3c932495
bbda5141
bd22e988
3c8667d5
bce4befb
3c68c677
3cc38840
3bdd21ae
3d75a0ac
3cf1eed0
3b43411f
bb75ad74
bd0b5f9f
3bb85d72
3d0838d2
bc186d1a
3bff8eeb
bb2d5ad7
b9b6ee18
3c1a2976
3cd4d44c
bb147b15
bcbc2883
3ac09e05
3a69f196
ba8fcd1f
3c84a4be
3c0a548c
3c65e86a
3bb5c0ef
bcd7c5a4
3c66ce58
3c911662
bc04508b
3d26f7bd
3d6d9a13
3b7e25a2
3b36982f
3c7f6b72
bb8fe838
3b33d61c
bcd5aa87
3b509e3e
3d2b2274
3d0397d0
3c1b61ae
3bea1f69
3c227ee2
3c02ac56
bbdb0636
bbf30004
bc7fd26a
3d11abb9
bc411725
bc1bbd32
bc96c512
3ca34cc5
3b887418
bbaabd91
bcba809b
bcb42551
3d07ff71
3cb35d0a
3c9b2f03
3b01f540
bbea7f73
3cc1ddce
3d3af305
bb565416
bcf56d96
3c8fd06b
bc7f6596
3c9446f8
3cfda066
bcbf880f
bcff5fbd
3b4dfe76
bc480671
3d09db2f
3b509c33
3d07c341
bc1ba1d7
3ccb9a5a
bcc5e459
bc6f192a
3cc841a1
3c7244a8
39b972d7
bd1c7324
3c68ecea
bc7cf15e
3be9bed5
3cc0e59a
3be4f32c
bc4b4583
bc9c800d
3cb92ed4
3c7146cb
3d031f2c
3ce2af02
3cc5f3cb
bc84b77d
bb8b74ea
3d04ac78
3bfde1af
bd006417
3cf9c7f0
bc0f0ff6
3c9bbd4d
bcfaebd0
bd08b7e2
bc6c2d8a
bce65f64
bd001ac1
3c5e55de
3cbd36cc
3a9e645a
bd05316c
bd20d20c
bd2acd5a
3ca5864b
3ca64427
bc8952c2
3cdad1fc
3bab9fe5
3cece1dc
3d08648a
3cd40d82
3cb67296
bc059f43
3d2050e6
bb4bfb4e
3bb93783
3d10b671
bcbc8a76
3ce43b25
3cd04b59
3c805e7a
bce13560
bbced748
3cd97e5e
3910880b
bad81d68
3b8c09df
3cde0de6
3cc1d1c6
3cb52b1c
3c21f836
bc36a083
bc3da2f5
bcbb788c
3ca95975
3c9dbba5
bcf96e27
3ce8fe34
bc5fb381
bb5ddc5f
3c50329b
3d014547
3bf302b8
bc253237
3cbe0fe1
bc9a8a4f
bc4d0027
bcc3e9b4
bcacabde
bc76b3c6
3ccde166
3c896ed1
bd07ca00
bc63858e
bcde20e5
bc44bc28
3b9ea9ad
bc9333d7
bcc2d191
bd321df2
bc82703b
bd2033ec
3c479371
bc8fc37b
3c802a9e
bcef5e1b
bbf527ae
bd0e1d42
bb5077f1
bcb78ed6
bd039848
bd0e365d
bcd3eadd
3cb3861b
3c90e33d
bc9ce0cd
3d060e4f
bc8215da
bc98f4d5
3cf6641e
bcb19f8b
bcb21a21
3c8cbc62
3c685422
bb836154
bc65a468
bc8a3ace
bcc74785
3ceb5c93
bcf68a55
3b169cbf
bcae8e20
3c8f2709
bc01659a
3bf70e86
bcce017f
bca2c71d
bc8fb206
3cc220f6
3cc05d82
3c26dbe1
3c3334bc
bcea506b
3b1f2f00
bbde9cd4
bd113bfa
bc4da4ee
bc1a922e
3ca11afe
bbcbde9c
bcbb000d
bce6c595
3b6eceb0
3cf23a98
bbe6a6c7
3cf789ec
3cb3c329
bb89bc60
3bf3c542
3bd9024b
bcf43045
bcb7c0ad
bb0a03bc
3cecd665
3c94dc5d
3cb4af85
bcb50075
bcb64c11
3d050fb2
3d0ef1d1
3c8736da
3ca2e8fe
bd0e9067
3c1dee78
bb5c37a0
bb5852d0
3ce17616
3ca8ee76
3c256c1c
3c7724e4
3d08a8ed
3c8c9b7c
ba4e8640
b905be00
3be39f60
3c452134
3cd4ec13
3b1b925d
bc923180
3cf747de
3b940868
bc6cdc66
3c6621f8
3b7c27d0
3c274b84
3cbeefce
bcf02c35
3c9bfa40
bc660d86
3cd6b9c0
bccaa5b5
3c9ef7e8
bca303d7
3c1a0b1c
bc7388f8
bb4ce2de
bcbfaa2c
3c50086c
3d012a09
39427d24
3c4bbf38
3cb7e45f
bd0110bd
3cd98e24
bccc9417
3cce867c
3c33ec5e
3b5e1500
3a25b44b
bbc8a23b
3cbd425b
bc34293f
3c4bfff3
3c65f6b0
bc897543
3cdcf02e
bb882698
bc0e7338
bc1b417c
bc9f199e
bc9d1a7e
bc4700a2
bba98079
bbc3b5ac
bc4f53ab
bcfa489e
3cf7bfdd
3c66c32c
bd0744eb
bc79e6e1
3c167411
bcddd592
bad00522
3b4d1625
bc1a954e
bcb9facb
3c8f2db3
3ccdd81e
3c0dbca0
bc952d66
3cae0f1e
3d009d79
bc85a1d0
bc47edd3
3cd3e130
bc48b0ee
bcf046a3
bd0a9aee
3ced7ac2
bcb439b7
3cdd955e
3cc2ef34
3c689e44
3a692dd5
bc700717
bc80634d
bcd8da71
3c29cee9
bc395a6f
3c65efd3
3cde1808
bbf947cb
bcf8f1ad
3aa860f2
3c618ac6
3ba178af
3c9c6304
3cc9b0da
3ce22afc
bb5347f2
3cb3fcf7
bce74567
3b73dfce
3c08096d
bcce79d5
bcb923f5
bcd6873c
3baea62b
bcd88b09
3a81303b
bcaf6fb6
bc605831
3ca2ae9c
bceeb505
3c741dd3
3d2286a2
bc0ffce8
3d45cb0a
bc1af253
3d5226cb
3d04a659
3d065d88
3c5957a0
3b33b4ee
bc31516a
3aaaf6ea
bcb24962
3afa9d5d
3bb0da90
3ce9d48a
bcfae0ac
3d0729eb
bcbbbb81
3c9541da
3c83a670
3c8b23c1
3c030c6c
bcb496dc
3c10173d
3d0f3e7e
bc19d9e3
bc7de4cd
3d2c0197
3d540978
3c995ff3
3d45eefc
3d50215d
3c914d91
3d8b7ca1
3bc1b2e3
3d4979b6
3d025159
3d07fbbe
bcd11560
bc1ba2fa
3c860591
bcfbcf71
3cb03da8
3d09119c
bcd245a5
3ba1df62
bc57fa8e
bbe55b7c
3bf40b7c
3cacd762
3c2eaa2d
bc36e01c
3bf523b3
bc8bfb49
3ca49fb0
3d6520a5
3d2ec9e1
3d0be20c
3d3e4775
3d668d02
3bf16ddb
3c7753c2
3bab55f1
3b91261c
3cffa4e1
b8e7f1a7
bbdd188d
bc0d0234
3ce6981d
3c9f6624
3b191e2f
bc89a0f9
3ca63e04
bcdcc4ec
3b7df3cf
bcea355e
3d0cae0a
bae1f81c
bb871d4b
bc650197
3d076b23
3cfc5240
3d32b958
3d3162eb
3ca36b7a
3a616c36
baa32d83
bca62106
bcecfd5d
3cdcad0a
3cf49202
3c2318d3
bc60885b
bc9d7742
3ce8ff81
bc7f7aba
3cdd6e19
bca80662
3c86e8a5
3a3060da
3ba2ce3e
3ca24620
3cb8a889
bbd9f27d
bd0c9acf
3a4284f4
3cc7b6a3
3ca7b2b9
3d195c6e
bca0f88f
3cdb235c
bbccc50a
3d354034
bbd26dcb
3c84d9e6
3c401769
3c8ce1a4
3d0d730a
3ce9786a
bbdc254a
3c661e45
3c82383c
3bcf0e42
bc4957d7
ba704eab
bcfbe1c5
3c83c277
3cc57713
3cadda32
bd0459e9
bca9e856
ba4ad641
bd05e7e8
3d09c45a
3c5a0413
bce48ccf
bba268df
bcbf8125
3cc675a1
bb9baf26
3c93c48a
3b9f1d0e
bd25dbef
bc7f45c6
3c3bcb2b
bbff8d88
bc8d4899
3cd5041a
3c91dbe2
baeccfd8
3caa712a
bc8807b2
3c1717b8
bcb197f1
bb673c2e
3abfe15d
bccd976f
3cb7dcf9
3cb25aef
3cfec5a6
3c7973ac
3cd5636f
bb94ac3a
bccd4bac
bc0baf48
3c61225c
bca79865
3c8ba259
3b81f5d1
bd5d5512
3c9cb93a
3c7c18ea
3d3dfc41
3d5c07d0
3cacd0b8
3cddb1eb
3d11dfab
3b6ee72d
3cc8fcae
3c7e1032
3c46601a
bc948982
3cacc07a
bc7ae87d
3cf49483
3cca6bb0
bc00acd8
3d02f3c0
bca7f796
bc187171
bc5fb804
3c0c9980
39e117a9
bc97e2b7
bd020e2c
bd68e144
bbd7f04f
39950cfe
bca99c0d
3c556d40
3bf417ae
bc50b4c1
bb36dc6b
3d0d41dd
bc318d53
3b46a36a
3c6c763a
3d17454e
3c81e082
3b31059b
3902c5f7
3b66ffad
3d0057ae
3c18a2db
bce17a7f
3c803c49
bd07b397
3c74747c
3c6ccf3f
baaecb21
3c77998d
bcc76548
bd5fdea2
bd10665c
bc6fba23
bb1dacde
3cd69d22
3ba9079b
bc9df258
3b8538cd
3c62750e
3b9468e0
3d097739
3ce186e8
bb8296f5
3d1e0471
3c19ddeb
3cf8b356
bc128277
3cadad76
bc15a9f4
3b702e68
3caecef2
bb64e892
3d04ba0a
bcee50d8
3c4be2fe
3b3a6327
bc2b0fa4
3c2f527c
bd77bc1c
bd3df601
bc3fd5b4
bd124fc9
bae351fb
bc3d1074
3d0ce256
3a81cb35
bd014e90
bce40ff0
bcb1aec5
3cf11318
bcd05ef5
bc693c07
bc4afc48
bcbf6a8c
3d068f50
3bc77c2e
bc9e877e
3cbc70fc
3c9539b4
bcc6d4d5
3c569e85
3c9f3718
3caa277a
bd18c840
3bf86a8a
bcc1a10a
bcefbeb0
bd773230
bd32fa44
bd412d51
bcc239e1
3cd4f9f4
3d00559f
bcb62889
3c10e1cf
bd217ca5
3c5b8d04
3bb122b3
3cb21c03
bcd84e60
bcd13d14
3cf891b4
3cd12736
bcdb572d
3c555456
ba86ed3f
3c13c563
bcd6d162
3c8934b5
3be0af3e
3c02cd95
3cf22fe0
bc85c614
bd24be21
bc72c653
bd08576a
bcd66dd1
bcda7f79
3cb5c988
3c8a49e7
3c3c74af
bcfe031b
bb86b4b8
3bd4a2b9
bc867862
3ca95edc
bce2a1e1
3d0ffb98
3c99a02a
baa698ef
3c589193
bccf30de
3b0d3751
bd0d6717
3c8ff1d5
3c5e3a84
bbd6b4f0
3cc54a1a
3bac81af
bcbcfae4
3d01780f
bd2447e4
3c9c1ab4
bc6df700
bcb85c30
3c903eab
3cb5b219
3d27c932
3b440c14
bb9a7c70
bc28995d
3c9cc055
bcb79c90
bc2be1ee
bc2a5197
bcf17e03
bc912698
3ca3c471
3c93f34d
3d133f5d
3d0b8a01
bbb4f16a
bcfc757e
bcbbc3de
bb1f0f45
bb41a65b
bb5f4811
bc28b5c3
3cc9a6fb
bcc326af
bc9c5cd9
3d06e3c8
bb074a01
3bbc2af1
3c5cfbfc
3bba33d5
3c553995
3cb66c86
3ba95cd5
3d070101
bc6eeaeb
bc9a5a02
bcb19685
3d22e80b
bcb0a921
3c658e87
3cb3506f
bc9a0f86
bce3ab8b
bb7db4ec
bc7e8254
3c400c37
3ce66a8f
bcbae4ba
bc0c7507
3c76f3c1
bbc3fda5
3ced62fc
3c3a1d0d
3cee3408
3d3d76f9
3c8d6738
3d1a0861
bc9296aa
3beee8aa
3c0259b6
3cbb8a84
3c92c99c
3caa399a
3d1e16f2
3cd6f0f9
3bb409c2
3ca13147
3d083cd2
bcf0a98e
3b0b02c1
bc833a58
3c97515e
bcaad7de
3cbbfd51
bcd7b6b3
3c6d7f54
3ba5eb5b
3d26cd22
bbd6f635
bb9590df
3d0e90ac
3cf1033f
3d5ed7f2
3cfe2c1e
3a78c3dd
3c4b5708
bc2b385c
3c792197
bca5dfab
3d1a6caf
3d0634e4
bbf42e14
3d07feb9
ba81327e
bb60e970
bca866f1
3ce967a0
3cf918ce
bcb74079
3b71dc35
bb548a10
3cb80d72
3c96f5be
3d112b93
3b85718b
bc909f67
3c698c87
bb6bd5fb
bba6c37d
3d3d44f8
3d388cc5
3d12be03
3c85fd9f
3c9ada56
3cd1f1e8
3d040323
bcd07e42
bc996721
bb4eb93f
bb0bcb5f
bc9749a6
bb4fefc4
3cdd1c99
3c1a8359
bc9b3533
3cde2df2
3ca75368
bce00464
3ca0869f
bcb70fcf
3bc5a441
3b4fe70e
3c3ca192
3ca82103
bbf3e39d
3bcdc22c
bbd65d5e
39ec36de
3d487786
3c078568
bc767bb9
bc49f9cf
bba2de25
3d13c339
3c24ed0f
3c67c316
bcc22d83
3c5199e4
3cdb1360
3c9a7c8d
3c826092
bbedc99c
3cdee40c
bcd37b82
bb525ef5
bb347c71
3d01f343
3b8fa991
3d01c8ef
3c4ad25e
3d0111d8
bc89aafc
bc64c7e4
3d51b6f6
bbe8c678
3d4f6f5d
3d370c54
3b8d9f59
3cdfce96
3d47da50
bc6146da
3ad81da5
bb6d5d4f
3cecca06
3cec5ba2
3be4b5df
3c9be462
bc6776ef
bc8ea674
3ca4ba4d
bccbab76
bc979498
bb683034
bc8a4f3a
bb0b39e0
3b9dde08
3d0e635b
3ce22286
3b6718e2
3bd692df
3cad4001
3d364108
3b20fb4d
3a012b17
bc218eff
3d4a9c2f
3c3b711e
3d0a6615
bc4a39e5
3d0f020e
3cb98f2d
bca1477b
bce2fffb
bcf8d996
bc923b17
3c1e932a
bc4fe242
3caba3d1
3cc924f8
3cd24c70
bcb449b1
bb4e91f0
3c86ec2c
3c8a8184
39e7e1eb
bd0313e7
3cc3d619
bc3715cb
bcf889b9
bc9bc96f
bb2c75d1
bc90c768
bbfccbe5
3cfb81fd
3d0fdb30
bcc43f16
3c995ddd
3cbfdbed
3ccebbda
3c6fc6b4
bccbc690
bccc7cb5
bad0f0a9
3d0423b9
bd118386
3b49da14
b9ae5850
3c0d6372
3cc0f6d9
bcec11f3
bd0fd0c4
b9613e00
3b0c62c3
3c1b5949
3b35518d
bc202d66
3cb45620
bbed3314
bd067caa
3bf12ddb
3c72bd8e
bc899519
bcb4578b
bcd1dbe5
bc4d9549
bceabdb4
3c077f85
3b593ac8
3b860689
3c8c3606
bc30d7e7
3d046d65
3cb470ca
bd134db8
3b253998
bcadc4f5
bc9e82d1
3c53d1d0
3d0e15f9
bb8241c8
bc3403b8
3c92cc94
bbc509e6
bc7da719
3ccac4f9
bcfff8e5
bc88ecea
bcd57ceb
bccb58cb
bcaf029e
bbbccc52
3c020745
3cb5f20e
3ba779b1
3c03dc23
3cedf1a0
3b71b183
3c6dd2d9
3c13c7b5
3cd43f0d
bb1d059b
3cc13333
3c6974e0
3cce7ecd
bb6a63a0
3ccace12
3c161aa4
3ac96b20
ba139fc0
3cc92f96
3cdf21b5
bd03e19e
3c5fac06
3cfefcb5
3c9684c2
bc33eef3
bd0bb617
bc74a532
bb9f4e91
3cc34ff1
3d03c8a2
3cd4deb9
3bd6e442
3c317a84
3c1a89b8
3cb41229
bcce369a
3b109f99
bd003c8a
bce4e93e
bc4b6726
bc3a38f2
3c6f6b34
bc8a473a
bc84f170
bca6c5c5
3c888e32
bd08144e
bcf951b5
3d0aeef1
3ce2675e
bb614590
3cb77472
bb96a4a4
3c473490
bd0eed13
bcc5594d
bb1c47fd
bc8710e7
3cf09cee
bbd46a24
3c3acd10
bca11545
bced136c
3c300a54
3d096f59
3cc1360e
babc75c0
bc552e92
3cb25050
bbf60e70
3cff59b2
bbbc8dc8
3bcc07f8
bc4e8172
bcbab1ac
3c64d5b5
bc56966c
3cd7a3e0
bb72823b
bc82c610
3cf42243
3c47ac87
bccbd773
bc02daa7
bc38065f
bb48895a
bca0b58c
bcc8fc94
bb337d90
3d0ee094
3c53069f
3c00c166
bcc877ae
3ca274b2
bbec1024
3ca947a2
3d11d597
3c19c888
3d10d67f
3b6ed5e0
3ca01236
3c30406a
bbe8c13a
3d0655b9
3b811a39
3cebf863
3cdd6b7c
3d0c02e9
3c22414d
bd064e83
bc2b08a5
bb6bfd7d
3cafbd2e
bca68cfb
bcb41f10
bced6f91
3c86b4df
3c057525
bd1a6d60
3ca5ea93
bcc4fa08
bc6c3032
3c48c608
3d0e52aa
3cffdf57
bc6f3bee
bd1132b3
3cdf03c2
3c65ab88
bc4672d8
bc0f8d4c
3cc73ec9
3c0ede61
bd09f0ae
bc944c27
3acbecaa
3c9f9daa
bcc96864
bce20ab5
bccfffbb
bc257abb
bc26277f
bcff8b2b
bcb1b849
bcc9d5dc
bc9ec4c3
bcb2aa1d
3c568877
bc56c35a
3b2c06d2
bc28f84b
bc19b733
bc2c7c10
bc05939b
3c2452f4
3cd4fcc8
3c5c87a6
bb336d9d
bcebe003
3c85faa7
bd04d46b
3d0c838f
3bb745b6
3c5aa1ae
3cc74125
bc78294a
3ceaa027
3cec18a0
3d594143
3cc7773f
3d0acce4
3d0c803b
3ade5c51
bd12f210
3bb37502
3c9d30e6
3ca6de89
bc649ef6
bca9196a
3c4fd0dc
bc97cd94
bceb99c8
bcc83ee6
3cb9bbe2
bba7f064
bcc112b8
bc4302d6
3cdd3cc1
3cd8d058
3af50c5b
3c9a80db
3c1c6863
3ced9cb9
bb04a533
3d2a33d8
3d333b79
3c68e473
3d270441
3d49d91f
3d118cad
bbc328fb
3d4ea0bf
3cff4914
3b5df037
bc376bcc
bc54dd4a
3c685ffa
3cea00fb
3c876d57
bbd345d2
3c484ca6
bb577430
3bdb4bf5
3cb60524
bc732d3a
bc4a16d4
bccfbf71
3be2041c
3b423698
3d0a1df0
3b227104
3c93f32c
3c64b2e8
3d3a0d14
3d76e1e1
3d88e781
3d81e9d2
3d424eeb
3cdea561
3bdf0e54
3ca11f7b
3c116a38
3c8486e1
bbf14c24
bd1f558f
bd1099f7
bb11f452
3c9da77f
bcb8ee0d
3cfd8e20
3ca67e29
3b96b3a2
3c2cc9a9
3d098ebc
bc0afc36
3c1a9746
3c989126
3c2c82a3
3bff4ff9
bc412854
3d3c994b
b8e27158
3ce5d6c9
3cbc3cdd
3d7a95fd
3d8a9fb5
3d3d6a23
3d89e365
3d6ed460
3c44a086
3c305658
3ca7cf98
3cdcd8e8
bc2a319d
bd13796f
3d106f0a
bcac0107
3d0a9ab8
3c62f9a5
baf0ba8e
bcef1e63
3cc1c576
bbad8c79
3ce3cc1f
3c6ab89d
3ce5833a
3ce254e4
bb0db44b
39d39521
bb939ff5
3d3df9d6
bc30900c
3d4f96a4
3cf4991d
3d2ac4bb
3c1a6f4a
3c5ecad4
3d7975a9
bbf84a55
bca017ea
3b2b65a7
3c0fe2ec
3caa0ef3
3a8e2f8a
3b1b3fdb
bd06bbb1
bcadffff
39c622f1
3c40daf1
3cbdf5a9
bc86705f
bc509420
3d02d040
bcf70749
3ab0db57
3a2c2bc8
3cea846a
bd029865
bcc8ce75
3c6f47e5
bc97f189
3d412ec7
bba2f051
3d6a2e06
3d01cf1c
3c2ccbd6
3ce1f128
3d261db5
bc53533c
3c9ac886
bc71c8af
bd1144a9
3caa1018
bd0ccf20
bcc72103
3d08f773
3cf5f0d5
bbdde7ff
baccfd7c
baf72f01
bc71ef44
bc52be2e
bc869d1f
bd24f4a4
bb9a78e8
bc71be63
bc6dbc0e
3a42f599
b934f6f5
39d705b3
3c8d9447
3cb2bc00
3d3745c1
3d7c3a5a
3c4ce561
3a42095e
3c071bc2
3cde18a0
bbd95e32
bb091907
3cf886af
bb4a9c74
bb3c39fd
bc99a61f
3c9e77dc
bb05cb40
3c9d7434
3ae00d81
bca702ee
bcf219d0
bd220754
bccea9dc
3baa73fd
bbfdbcd2
bd094eda
3d0421ab
3d3b5005
3bc2b0d7
3d066e74
3cd2d19f
3d03975f
3ca65424
bc5f6611
3bf4f4bc
3befc4f9
bc8cc698
3b7f7254
bcb8f5b4
3ce107bc
bca5973f
bca164ff
bcdab86e
bbf8aa52
bcc110f5
3cb2784c
bd2cd510
bc1f8f2f
bd4d4999
bc73b169
3b6a4c9a
3b851f09
bcd17015
3b0b975f
3a9d51bc
3d505c96
bc9e8a9e
bae2081e
bb76d263
3cc071cd
3b23ce35
3ca3d4c1
3cd4f7c0
3c003651
bc91c018
bcf9950d
bc89d5d8
3cd7bd82
3c08d46e
3c836e6b
3c835b8d
3cb3c7d5
bcd7005d
3c6aca2d
3cb6fe87
bc59b111
bd0dbe6d
bd0781ee
bd54926c
3c090cd5
3cbd1c33
3d3e692b
3cadeb22
3cafb08b
bcf19947
bc10edbc
bcb00fee
bcf5bb86
3c6e978f
bad13a2c
3caa14f3
3cd1a6bd
bbd00b73
3cc38360
3d06775a
bb33204a
bc7bb8be
bd06f9f8
bbbac25e
bd0f813e
bc9d398e
3c790f03
bd0a04bc
bc1f7005
bc5c9515
bc788134
bb55cd48
3cc05674
bc314128
3d4850db
3cc71491
bd01752b
3c4a74db
bbfc629e
bcfe3662
bafacdbe
bd1e6534
bc5a63b4
bc98a4ca
3cbf0fce
3cbd817d
3cfeb4bb
3b812926
bce968dd
3c34cbea
bc90b1b5
3d068a8b
3c75b88b
3c9340f3
3c65589d
ba57c7ad
3ac17ed0
bd4824c6
bb119b55
bd49bb6d
bd1cccaf
bc679551
bc044be2
3cc63d19
3b1dcaf1
b9c043d6
bbca464d
3c44cf24
bc9ab843
bc43855c
bcd6b5d2
3c62d5a6
bcd42282
bc083923
bc32f21f
bc0dff4d
3c9a927c
3bac8a03
bc4f2d64
3cd5dc53
3a93297d
bcab53ee
3ce812ab
3d14ddb2
3cebae49
bc468a5a
bc6578a8
3ab773f3
bd0fd63c
3d104b8f
3cb43bb0
bcc7d07a
3c0b75a3
bcf9dbe2
bc4cb935
bd0e62da
3c8bd75b
bc80b27d
bc830686
3cf8a539
bcb85019
bb339135
3cddd911
bbb41983
3cb28e62
bc82c5ce
bc9975e8
bbf51a27
3c7f15fe
3a75e3e3
bc540dc9
bbe58487
3d0fbb23
3c9ae374
bd11fa39
bc4a160e
bcdbc0e2
bc472ab1
bc3efabd
b90e6a9c
bc7adafb
3c9dc5a0
bcfb43c6
3cda31a0
3d02c8f2
3d0a2138
3c0eba0a
3c9727f9
3d0b8aa0
bc664cfd
3d0b7d3a
bc9065af
3c4b2b28
bcd73016
bcf64fe1
bc9f5aed
3c8fb9bc
3ca33704
3b162f9a
3bfd39b4
bc263878
bb5ef251
bc56930d
3c9a1af1
bcd2f847
bcfa5cf2
3b9244a0
3c73d8f7
bcb9ef21
bc2f2a92
3be90fc8
bb821282
3d1cff4f
3d1b4bcd
3d16656e
3bb48201
bc960e42
3d04ee37
3cda57d0
bc9771ae
bd050869
3cec844d
bc6f46c7
bca1d7ff
bb0d7c57
3cc33be8
3c49d402
3d7ac7d6
3d7b7ae4
3d50545a
3c40e7dc
3cb7530c
3c9c7e91
bd26c0af
bc18ff3c
bd2eb175
3c2a649d
3bb62664
bbf79a55
bc24a3b1
3cd061f5
3cb99f98
3d1ec888
3ac56ddd
3a99da21
3a87cff9
bc97cee5
bcd1f83d
3c06a0ac
3bb64170
3d0b2f47
bd02f763
bcebc000
3cc27aa5
3ccd0501
3d557483
3c3d562e
3c9b0f97
3cc2cd5f
3c3ac28e
3cff1295
bd3cc622
3b330122
bcc151df
3b395d37
3c7116c1
3a204a0a
3d2f3799
bc7cdffc
3d4c03a2
bc9fcaa6
3a1e48fd
bc85666d
bc85db7e
bd0380a2
3a941beb
bc7d625f
bc4c4c2c
3c74c28a
bd0243f1
3b9170ab
3d05ac28
3d112e85
3d533d9a
3d94f5d7
3c50d0e6
3c2a7805
3c09baa1
3d445961
bd0402a0
bc6d52e0
bcc0abad
3d1bfcb7
3cdf0c8a
3cd48d50
3d4142bd
3c8814bd
3ca7971f
3cd404f5
3c2a9575
3aaa648e
3abe9425
bcf088af
3c88b815
bc8b3a30
3ca96dd7
bc89a912
3d0807a7
bbe45612
bc26fd51
3becc7ff
3bf865c0
3d037bfe
3d0270b8
3d3551ae
3d84b94a
3c42314b
3d94db67
3c24c76f
3b7d25da
3bd25c6b
3d4e1620
3c74c5c0
3cacb687
bbe818bc
bc80428d
3c167a54
bc2b8837
3cf5c15b
bcc59ca9
3cae8057
3c572df6
bb2aab57
bc46d76a
bcf8b0f8
3cd25bbe
bd0cae03
3c27f148
3d1dd080
bcbadd1f
3c8a8764
3d1a94f9
3d80dc04
3d8709c1
3d17aa1d
3cc6843d
3d9bbbf3
3cf78acb
3cef61c2
3d1a5770
3b0dcdf6
bc979868
bc40f858
bbdb8f31
bcd0af5c
3a3649f5
3cd76945
bca7e65a
3d07ec56
bd058cae
bcd32e4a
bd0f4ce6
3cb4d9fa
bc83a34e
bc4219c8
3cfb4ad4
bba435b1
3cd7661d
3a6d2b80
b9ec3ffe
bc60147e
3b75ec33
3c87eec4
bbd81b25
3bcfa6a7
3c9e8fd9
bcb3f243
3c84a7ac
3c126dc2
bc6d9cb6
bc4d5d37
3c9449f3
bcd321b9
bc82c582
3c994b87
3c88f7dd
3b6f1bf9
3d0a5ce1
3c893978
3c0860dc
3ac77c40
bb1d4a5c
3c7483bd
3cd50d69
3bfef875
b9de261f
3c4a099d
3c6a74f5
bbf48575
3cf463b5
b8e5ccdb
bbb5da6d
3a1b0896
3ce9e442
bbe492a4
bc20c373
bd001636
3c999545
baffd890
bd02380c
bcacea9e
bca25365
bc9e8829
3c1e509a
bca88b9e
bcd0fa5f
3b83eea8
3b065260
3c200d9c
3c56833c
3abb1589
3c61d12f
bcd35ed8
bbda3ef0
bc29f22c
3d08b4b4
3cc716d2
bc29f176
bc8f4c00
3c3b9eeb
bb53454f
3cfa8495
ba89a13d
bcd9b307
3cb9e99a
bd08f073
bc9253b8
3c09cd6a
bc89360b
3c6635b6
3c48deda
bcbb0e5d
3bb27257
bb2d1ed0
bc84d380
3c4b45a8
3c523e38
bca58758
3b9aa0f0
3c16001d
bc09002f
3c07e85e
3b610c27
bd0d3b11
bcdb59f8
3ccabefd
3c9b6b9d
bc9e8379
bb91e42b
bc3aead3
3d05e6a8
38a7bfb9
bc8e8633
bba76cc4
3d061aca
bd06463b
bc2893a8
bc1fe93f
3cc6a51e
3c6fae90
3c21c274
3cb8520a
3b601250
bc8418c0
bc36e518
3d10f1f3
3c78df14
3caf39fe
3ca2c54a
3ced0ef6
bcb3ffc8
bd09230d
bce703a5
3c4b8ee0
bc7907ce
bcd57a6d
bca1c704
3b80e0ac
3d026075
3c1817e8
3c9d19da
3bbe5908
bc784074
3b3a3e10
3cb9cf88
3b003fb0
3d0239cf
ba1e9600
3b0415b0
bcc2bd40
3c40e7c4
3c8079c0
3c42ab5c
bb24f930
3bba9b58
bccb0a37
3c894589
3cfa7eff
3cdd979e
3cdeb303
bc958ab1
3cc2eaef
3ba7dfc3
bc20cdc0
3cc6290d
3cbeb6ed
bc0a24fe
3d07753b
3cd83b89
3c255f48
bb0ae200
3bb39592
bc8d9771
3cf0f0d5
bd005594
3ca0d0d8
bcd3c24a
3b93c238
3d043b5b
bb870250
3bb65ac0
bc55b9df
3be90939
3cc35800
bd005dc9
bc3acc70
3cbaaf7c
3bfdca3b
3ca33c1a
3bfb861c
bca8b60c
3c88f60c
3c32a667
3ce834cc
bcbebdd5
bca7b1da
3ca091c9
bc7af655
3c97677e
bb3a57a3
3d0b692a
3ce4e34a
3beee8eb
bc5928ac
bc9f0dec
bcf4a353
3cd0bae2
bbe3d894
bcd46210
bcedc237
3c9c3a24
3af2a760
3cf84804
bc24d3d3
baeb6410
bc8bc5a8
3ca14e45
bb996923
bc58b8d0
3baac7da
3c432786
bd2afb47
3c95f077
3bea02c1
bd02dc25
3ccd5e24
bb662a13
3c28bbc4
3c7c07bc
bba7cb6d
3ba3065f
bcf3f2b9
bd0a1e9a
3c719866
bcc42ffc
bd081283
bce00f46
3ca485a0
bc17a099
baffe2f0
bcd1a9b4
bcdd76e8
3c04ac18
3cc9f251
3c383a31
bc8ef3de
3ca9d306
bc38d233
bd0a84d4
3c82d61f
bc6d5d9e
bd33591e
bd0f31b2
bbcffe60
bce0525d
3b310645
3d0eb757
bce9dc1d
bc99635a
3c986e6a
bca1eb1f
bb960a41
3ca89eee
3ca49118
3d08f877
bb856c11
bc1ebc4d
bbd9f441
3c3d43bd
bcd56979
3d0cfde3
3cb90f25
3ccd59f8
3ba63ac6
3d0b5a1f
3d1141bc
3c1627fb
bca55b9d
3c8fb400
3d227862
ba2fe1a4
3cb18fa9
3ce5f596
3cf038cb
3d061d33
3d3dd4be
3d057b6b
3bfb5054
3aaf9bce
bcf29fca
bc9c612f
bd0582e4
3c99e8b9
3ced89e9
3c8d7abe
3d10ca1d
bb348cff
bc0b5906
ba59d3c1
bc667233
3cda6027
3d1f347a
3d2a60de
ba0d2c9d
bc91220a
3cf50933
3d0efcca
bb5c6c9d
bc5056f4
3c33d2b2
3bec4fb6
3d68d513
3c3cfeb9
3d1c3d5a
3d25cb46
bcc8155d
3d14edc3
3cb8ed83
3c43747c
bcbc13c2
bbb53580
bc0589f3
3d0c05c3
bc9edf9e
3cc2db58
3d00fca0
bb3eddd9
3c69ba07
bc26a5d6
3c303cf0
3d3a82ec
396afc02
bc510c4e
bd457bb1
bd29bc6d
bcc765e5
bc2f347c
3d2aa7dd
3d7afdc1
3cfdecfc
3d436434
3d2b7541
3d1f4eb4
3c9610b7
3c73f36c
3c438970
bc0d67bf
bc2ab227
3d04a086
3a7d9c6c
bcad452d
bb08d360
bccb8f4b
bcf8eb27
bbdc851c
3d11f8ce
3c8a7a38
3cc6024d
3bf3b050
bd2d5c99
bd0ffcee
bc80e8fa
bd398b53
bd152348
b7be0544
3d09dab4
3d64b88a
3d572df9
3cca2c4e
3d5f6c69
3cc878e3
3d100e47
bccf6465
ba59b187
bca475cc
3ccd7300
3cee0608
bcf09231
bb84eb1b
bc3ad503
bd0f4c4e
3cf5e43d
bbfad93e
bc260a91
3b7278ed
3c804e8e
3cb0d482
3bab1b03
3ca5bd4b
bd3aecc5
3bc834ee
3a87b210
bcf3d7cb
3c859d2c
3d442768
3d3f7a2d
3d109de9
3c9d0ff7
bb37e5bf
bc9ce240
3c5ad990
bb8f3841
bbe65387
bc879f6a
bc3fa53d
3b12d9b3
3c914c38
bd1464d3
3d0b1827
3be1e464
bad21f1e
3b1b6589
bc83ef7e
3ac48366
3d1dba2f
3b7cc276
3d0b148c
bc219550
bcfe4ea6
3ad6abf9
3d124f6f
3bb4352f
3d250766
ba95c8c3
bca33907
3cfd6935
3d142249
3d0ec8ac
3c76643b
3c5483a3
3c9f7b75
3a5100cb
3cec86c6
3d0fab55
3c9c6282
3d03fc7c
3c9955e1
bcfbe187
3cfceb23
3cd75610
bc1c72a1
3c8367c3
3d1bb6ca
3c28fd82
bc314a39
3cbbfb3b
bb636d2d
3cd43ab0
3cf23c62
3c927a3b
bc8d4888
ba77fce8
bcda344f
bcec84e1
3c98f653
bc70c369
bc50e9b7
3c9ae9a1
bc92cfd6
baa13df6
bcf2b884
3ca0b2e4
3cf3b822
39a3a8b7
3c5b99d8
bca19e13
3d1a6523
ba83ecea
bc473e47
3b66cb67
3d3c80b8
3d9eb1e7
3d25c415
3ce492f5
3c28f290
3d11eb5e
3d12a3ee
bd008345
bbdd643b
3cb377c4
bc1a6305
bd0bd9da
bbd8a8cd
3c95695b
3cb03faf
3d0deb89
3ce04b04
3aa4e7e0
bb561780
bd126539
bcdd09fe
3b786d88
bd0af640
bc4b0806
3d100696
3b462264
3d737b7c
3c9acfd2
3d8ae4c1
3da4c2ab
3b8a3d91
3cbf1400
bc904656
baac525f
3a4e9a17
3c4dad5f
3c8acf72
bce064bb
bc8cb09c
bc92a2ef
3d04a2ef
3bc91b95
3cf035f3
bbc1b310
3cdb4a29
3cd1d46c
bcb8a7fb
bca346c5
bcc3e2bf
3b4f870c
bccea511
bbf7ae7d
bc9df152
3d0306bc
3cbe14d7
3c2a2103
3d73ce03
3d0a0d70
3d7051cf
3cb4810b
bcb99c20
bc8574a6
bb0bcbf7
bd13437f
bd04ba65
bcf85839
bc22b59c
bc406770
3cc2e022
3cf70dfe
bc016c57
bc749013
bb68e31c
3cea2bbc
3b57ef40
bd0dc4d7
bd0b1edd
3cf8149b
3cbe0445
3d025960
bcc71bf5
3d2623b6
3b7303cb
bc336253
3c772c47
3cce4e6d
3d3ebe91
3cbd9097
bcdefc79
bbdc64e4
3cfd8ac1
3c410194
3d1a349d
3caea540
3bb58b96
bd0055ac
bc7c242f
3ca2e3f0
3c1e783a
bc7bc9a3
3cbf451d
bcf9d8f5
bc6d2ad1
3cb222a7
3c047b82
bd039c2a
bb8915ec
3d0919db
bc1b9758
3c90a63d
bc2e84cc
3ae66125
bcef69ca
bcc5928e
bc4dc0a1
bb4f3cee
bca2c1a1
3c93653e
bc8f2555
3c863471
3ad3460a
3d0eee80
3ccc95dc
bc67b540
3a61a9e9
bd0ae52f
bcf506e5
3c934e35
bb20f7df
3ceb0b32
3ca728d2
bbca379b
3bc02645
bd0a7b2e
bc45b99d
bc1cfd35
3ce154fa
bd0c43a4
bd29078e
bd0067df
3c37f708
3b413480
3bef9e63
bc6d93e2
bb7c52b9
bc02fc85
3d08795e
3ce019c9
3a1ab93a
bc07b530
3c44f633
3a83f94b
3c0dcbf7
bce0f63c
bbc49b6a
bca2bc4e
bc6b9200
3d07a9b5
bc6127f3
bd0bdbed
bc681c15
bca5aee1
3cee5b94
3cecaf06
3c9bc617
3ca31dec
bd0e72af
bcd45682
bcec9f7f
bd0bda62
bafa4e25
bd278657
3c8b8658
3ce5f94a
bc664061
3d19c6c6
3bd7eb30
3cd916f2
3c9b28a5
ba97401d
bc29b472
3bc6e976
bcc67077
bca02b92
3ccecc14
ba87a8a0
3c1b865f
bb65d94d
bc527588
3b13813d
3b27cf1a
3cfa3036
bb124b6e
3d04640f
bc8c0ae5
bb8690a2
bd6af63c
3b884609
bc2931e5
3a593a9d
bd326051
3d0cc1a9
bc26233a
398c0ef2
bcb2b141
bce91daa
3ce35765
3a918c89
3b4359b8
bcef28d8
bcf5c609
3cfc860f
3905c2e3
3d045f2d
bd0022f6
3c986e8f
bcd8cd51
3bb96490
3be1b511
bcd16659
bb8e62ed
bc00fcbe
3c1fcbfa
3ca7156e
bd347d06
bd4fa3a6
bd6a36ce
bd46712e
bc183a97
bcd41db1
3cb8a093
3ca63521
3d1d239b
3baabd6f
bd0fcdb8
bc419b0e
bd21ac4e
3afa14e0
bd113e96
3cf5e9bf
bc8e9314
bc1afd25
3c96d378
bcf84a9b
bc8a75aa
bc04f6fa
3c81db17
bc82dc8c
bb301e19
39a93419
bc92293e
3d0cc4bc
3a8227f1
3d0859ae
3cc72949
3c895d48
3caaa650
bb009c07
3c4816ce
3c2a13df
3cf4b520
bc7214d5
bcf5cc44
3ce1d19f
3ce94535
3c9f125d
bcb244fb
bc86ffb9
3c03ef02
3bb342a1
bd0e4bba
bca39176
bc6383d0
bbaaf204
bc2438be
3c9a9f1b
bb8f3edd
3d614361
3c84290e
3cb4c94f
3d1f3259
3c83f34a
3d35529b
3d47c68c
3d343790
3d280fdc
3cd7175d
3cd22c96
bc855dd8
bc1d5371
bca14bf7
3ca8430e
bcf39344
bc487975
bcd9a67b
3d068a56
bbb3eeae
3cad5ea0
3c4a7ca4
3ba4d987
3ccfd1cb
bb9ab8ea
3d026aa1
3cf981c6
3d19d888
3c68dd55
baaf4e8d
3ab3254b
3c9c35ce
3cecd58f
3d15a89a
3d1424f8
3d2de347
3c8b530e
ba802d78
bc17e110
3d1f9cd8
3cb1dd0c
bce53d56
3c52ceff
bcf8c9cf
3d01587c
bca039ea
bcee4527
3cda627a
bd09a393
bc78257c
3d0a956c
3bd9fb28
bc827465
3cd625c1
bcb34973
bc24ab9d
bcb07c52
3be33361
3d25639c
3c995041
3c050863
bbcddfcf
3c12a17c
3c832f5b
bcaf4a9f
bc4484aa
3d036f05
bc05dfc1
bd08199e
bc94ba1a
3ca9a355
3b92dea7
bc4f9872
bcc72d64
bc040c9a
3c70c07c
3cb2da2a
3c36d9bc
3cd74dc3
3c8fe19d
3d0e6e65
3c90bebb
3c8c8a98
bd125310
3cb8c1ef
3c8f7f99
bc62c794
bc8b8d9c
bd0decea
3bbe1900
bccb2c4f
3b685c2d
bb792796
3c043374
3c7e1c36
3ce02439
3c4206ab
3cebf044
bbf018b9
bca189ca
3ccdb322
bc6226db
bbccc3c8
bb959a14
bce7e523
bcb5b935
b9548200
3c83d0e8
3c96f5a3
3cf1c756
bc25b89a
3abbe0fc
3c9ce219
bd07c9b8
bb3414f0
bb8018b4
3c54b27e
bc049d91
bd26386b
bb650856
3c35a88f
bc95bf14
3ce91ae0
bbb55333
3c55e238
bcae143d
bc9e44f8
3c6715ba
bd00cff0
bbd2df4d
3cd8863e
bc54564e
bd09f3f0
3cef28ce
3c6773d8
bc84c8d3
3ce642fd
bc486a50
bc491d66
bce16854
3cf6cf84
3c300bfa
bc662eeb
bd0df110
3c6b2150
3be4ba15
3c1cf763
3b501c41
bc87ac08
3cd12745
bc51a841
bcf23787
3cc4dd5c
bcaa7439
3c386fc8
3cad02d3
3d0a33ef
bca29947
3c224ff8
bcf5040e
bcb11635
bc9071cc
bbe529d4
bc8ee463
bce8f0a5
bcd8049c
bcb951fa
3cc107d0
3c9e17fe
bb23ae70
3c6637a0
3c9aa368
bce88b7f
3cc8eabb
bca7eed3
3c7d8b16
3d0a88e5
3c2ce7e4
3caf29fc
3c9a3368
bae09ac0
bb649cb0
3c309168
3cc5c342
3c0ef074
3c2d6f68
b935a000
3c8a6b60
bccb670c
3cde44de
3ce203b2
bc903bf3
bc91a6b0
bcc1cf43
3cfcc6d6
3ce85545
3cf43fad
3c7512fe
bcf23328
bc5d9a35
3ca3bb7c
bca46e9f
3c2ae257
3c89732e
3cfc099a
3c8f84e7
bcbcb92b
3d04d404
bce46770
3d0c2c89
3cc51188
bc070e31
bc7cd7d4
bcc14850
bd0dab18
3ca78052
3d0ef569
bca89c5c
3ad2da39
3cf9e82c
bc66c1d8
bcfe917c
3c055775
3bdcc1b2
bc73591d
39a7c0d1
3c47a106
bcc2809f
bc866185
3c969436
bcc066bf
3c4ba0af
bce380f1
bb0cba55
3ce7278b
bc3a4d56
3d0002f0
3cda8ee4
bb63e166
bd07d447
bcf935ce
bcb7c361
3cf06276
3c630868
bcebc6e8
3ce01e6e
bcb3726f
bc391eff
bd11cb62
3d0216d1
bcb2572d
bc4ebd46
bd07ca05
bc9af43d
3b2520ce
bb857754
bc2f31ae
3c6a9e58
bd0c2dca
3d01ce3d
bcfa2143
3cb391d2
3b008cd0
3c577c29
bc03a0e2
bc18fbac
3cb665bc
bcc87add
3d0981ef
3cdfdc22
bcd9a94c
3cd00d42
bd0f2d22
3b859c0f
bc48f1d6
3cce1951
3bcefcd0
3cebf848
bcd0ff20
3d116dc2
bc5b432b
bd024fd6
bb378ae6
bca0ff64
bcef9dde
3bf8adf7
3ceb550c
bb4ca689
3c1a6d0c
bcf2958d
3cd4d503
3ca90441
3c943cde
bcf0605b
bc9da5d2
3d10124b
ba9cb394
bd0c0877
3d0b4fdb
3ce34c4d
bc3bff1c
3ca9532e
3cabdb4f
bd0a5d05
3ca4d266
bcf8f6b0
bc4be609
bd00bed7
3c2e343e
3cfea42a
3c56027a
bc642d71
bc86250a
bcf2d298
bb95c7d8
bcde2eb0
3b500b41
bd00b8ba
3aff48b3
3aa56a79
3d0ade62
3b667d93
bc24e585
bd0494a0
3c5f7a66
3bdc961b
bcc91351
bc58c09b
3bca9da8
bb012a8a
3c05850f
bcb0b9c5
bcefc94d
bc60cabe
bc958e23
bc4501fe
3cda253d
bbce2f3a
bc21868f
3cb37889
bd04ae9a
3cba58e8
3c093c4e
bb824782
bcefb219
3ab1ff58
bcfb103f
bba83f23
3c739923
3ccf4879
3ca76bc1
3d0c1acf
bc94ebf3
3d109531
3c0119a4
bad2bc3e
3cdb47cc
3c899f4e
bcb7f646
bc936185
3c8b89a2
3d09a10b
bcd0d777
3d07e875
3cdcd62b
bbe42e44
bb47093e
bcedc929
3be782f0
bcf20f72
bc995493
3c489f76
bca5a8fe
bcaaa8a8
3d2237e9
bc68c639
3d0235fd
3ad930ed
39fba87c
bc9afb2d
bc2c82db
bc162579
3cbaa885
bc7e37dc
bc48e7c4
3d0ae790
bcd10e73
bcf77ea4
bc5696e1
3ccd9793
bca9ec0e
3c8b499b
bcdbc6ac
bc8417e4
3d327cd2
bc98926d
bc72249e
bc97c467
3c714df1
bcfc905a
bbfa778d
bb09c78c
bb86c54c
bba72838
bd024e5c
3d11c64d
bd04e4be
3cc33b12
bb19b2cb
bb90c8ef
bc9c2fc9
bbd4cd78
3c7bb85f
3cfe817d
3cdd5dc8
3cd4478e
3c13e92b
bc124ff6
3d15e6e1
3d03a5ed
3c1e7a88
3a64ea84
3caeadde
3c96148d
3cd31422
bc23b6ca
3d183d8b
bb06a9b9
bc216a2e
bc49b556
3c4c7b01
bc9c7484
bcd3b648
bb40048c
3cd9accd
bc2a95c4
3c177b29
3cbec998
3cf99f9b
3caba3c7
bc3558cd
bb555552
3c5b9720
3d0f2cb4
bd04f588
bc8a3135
bbafb5f9
bcd2cc30
3d1085f5
3d322102
3bb903e0
bbe2180e
3b8e1a92
bc7ddd0a
bc549167
3d1ba090
3cf3bd5c
3d1382f2
3bb881d1
3d1df890
bbe28058
3cf889ef
3c9adbbd
3c082535
3aa98e09
bd0f9fd9
bc3a6b89
bd00cf68
bd0e187c
3c0e0666
3be5b504
3c8cbc75
3cb23c0e
3ce1b0ec
bc80d503
3d2d4d6f
3d0ea630
3d24d29c
3c991b61
bcad6a1f
bc52b57d
bca66ed0
bc13809a
bcad5f8c
3d223a83
3bba08a2
3d2e01dc
3d33ce06
bc2f5a8e
3cfbbc33
3c99b87f
3cb36cda
bd0db4d8
bc797784
3b2b5817
3bbc6100
3acf87eb
3c87af12
bc58246c
ba270b38
bcae23d8
bcbf9e1c
3d1bfb91
3d19f46e
3d0d12bc
bb295828
3c884936
3b8bc4c9
3c70ee40
3cea41d6
bcdbd383
3c7661d5
ba34df00
b9e05da3
3d018c73
3ccc8bdd
bb45f6c9
bca9acfb
bce6d001
3b88d3c7
bcab0e03
bcff58c2
bc6a22c2
3cab2540
3cc0720a
bbf55123
3c63799f
bc1bc884
bc5b27e0
bceb3188
3cd4b076
bc4cc477
bbd22208
bbbcc7de
3c937f4f
3c1c8bb3
3c1f9199
bd013fc1
3d05bd19
bc814a0a
3a3e8d05
bc87863c
ba797a34
3bbc838c
bbcd35be
3be2dd1d
b876406c
bd092e19
bce8f699
baea86d7
bcb65b71
3bfc979a
bb6f9a30
3cbbec25
bb92bc6a
3d0fe933
3c126336
3cbc3471
3c9c91d0
bc02874a
3b653276
3d0772d5
bc8c8851
bb106414
bc229778
3d02e080
bc8a5f2c
bbb04200
bbf5245d
3caed093
3d2de7f1
3d24e85f
bc316420
3ca33a81
3cc2b25e
bbeef641
bcf9e0ab
bb738187
bc8d3e00
3ad1f4ce
bc2265b0
bc930355
b8145359
3c835c7a
3d012474
bca62cec
3b23e47e
3d24a1c9
3b454248
bc9f4e43
3bd4161f
3d2dc628
bbcde0a7
bcb4b692
bc1a97d1
bbae0781
bc135ff4
3d2d3a64
3cc4396c
3c1397e2
3d092819
bcb28d02
bc344ca3
bd0a87b0
3cc1d636
bcc0d4c2
3c92247d
3a2b0cc5
3bdef189
bcc01985
3c937754
bd0c4f44
bc24b7b1
3c837db2
bc027b79
3bc59f6c
bcd91633
3b9f72b6
3b472638
3c5503d5
bc628a76
3cbc16b5
bb94126a
3c0bc031
bc81ae0d
3c3eaccb
3d2f8b8c
bc50d54e
bccedef1
3d12a072
3cb907fd
bc347874
ba90679c
3c863742
3c48650a
3c1666c8
3c5f8680
3cb79b6f
bca378ae
bc1f29f4
bc34253d
3cd618e9
bd097ce6
3cd74d8b
3d1583cc
3c0fbeeb
3c854921
3ceb7178
bb62c467
bc9990ee
3d191725
3c93d971
3d1f8f8c
3b98691c
bc03836c
bc9948c4
3c8c6373
3baae40b
3c8b0a7a
bd0bfe05
3d05ea96
bcf31748
3c97e503
bc1f4ac1
3c15105a
bca17a15
bca3839c
bc320b2e
bccb0170
3ce6083c
bb92f087
3a572ce0
bc3af8b4
3bc4f80b
3ca33359
bd0f739e
bd01ed2c
3d18bd64
bc1fa8b5
3c79c2c3
3d27aab5
3c0785a1
3cc9a70a
3acc71e7
3bb2beeb
3c0e75f5
3ca2c851
bc816083
bce265ca
3c98e8d9
bcc4e1d3
3d030621
bc455f80
3ce8edda
3c7a1d94
ba91a5c3
bd0adc59
bccceabd
3bcab491
bcbe7bc6
bd0fb63d
3bd60f51
3bec33ae
3b9712e7
3cf71ad8
bcd3d209
3c863540
3b02bb16
3d0ec512
bc5eab02
bc6ab505
bcfe4b21
bc9e9ee1
bcf9788b
bd1160ab
3cc58b20
3c76fd7e
bc46c2c5
3d097499
bcc4a2cc
bbc877b8
3c2379cf
3c29a8d5
3ca8a958
3d058400
bcb26079
bc67b0b3
bc23aafe
b7a4a683
3cd5ca47
bd0def7a
3cea6098
39f2079e
3d044450
3b684340
3c98ffdc
3cd3ba6f
bcf2f7df
bce4f3a1
3c7d2fdb
bb922b37
bcbda8d3
3cca0ccc
3cebced4
bc91aff1
bcf8c4f4
b9035b7a
bbe75be6
bc55ad20
3c918b98
bcbeb8f5
bd0c4040
bcbeffd1
3d037073
bcb31c1b
bd217925
3c932826
bc120cce
bd0bbaf3
bbddaceb
b8148902
bcecadb7
3cf28eac
bc8d8f24
3bb34c28
bce9e156
3c0995ad
3d17f065
bc84dd53
bcf31cc4
3ca9bdff
3c119077
bc421253
3c3d47c4
bb58f97d
bab71fa0
3c96edf8
3cb534aa
bbee9ef0
bc163dab
bca17d95
bba68553
bcac3364
bd095b4a
ba7cd6b8
3c1126f5
bccae6e7
3bbbd18b
bc2dea78
bc813293
bbb7dcfa
babc4e49
3c2abb72
bcb41508
bc6dd890
3cf974a9
3c9d0a42
39f66d48
3cd03268
bbb7eced
3b1d77e6
bd02fa43
3c611725
bbad0338
bcf54645
bb0ac6a0
bbe1e187
3cef420c
bc96f0e8
bca76dc6
3cbe8bb0
bd072dce
3c932e64
bbbd0106
bd06ec79
3b8a397d
3c87e1c9
3d0e46e2
3d18ecf8
bc9f52f3
bc7b9e47
bc979153
bc6aec42
3ccae182
39ec4ef7
bcaecc74
3d021526
bcb9e72e
3ce80a54
bcb2d204
3b1574ad
bcea220e
3cc3aa52
3d084bdb
3c030874
bd006517
bc8bf166
bcb739fb
3b9aada9
3cb50b40
bd034fad
3cf39da1
bc79d6f4
3c1db38a
bc745f1c
bc9ba6a7
b9499619
bcf69c76
bc522d21
3c4f35d5
3c09e587
3d162f89
3bcdfe1b
bcba1f49
3c5aa9d5
3ab662ba
3c17c99b
bc534d4f
3c53b0a4
3d04de23
3c118548
3d1019bb
bd10e160
3b3f3df3
ba13ebbb
3c3d3444
baf21c0c
bc2f232f
ba8ff0c6
3bd07619
bcf818ed
bc77d716
3d086eed
bc9da620
3bf1a135
bc94b387
bbc678da
bcacfcf4
bc66f661
3c3b4af7
3cad6e6e
bc977f91
bb977b32
3c0fe16e
3c525c60
bb678169
bc2a9cbe
bc958d4a
bbbe6cc0
3c15e784
bcff8d13
3bcfdba8
bc2519b3
bc1999c4
bc057ba4
bb71fd4f
bc4c5760
bc17307a
3d1167b9
3cc40dba
3bb89cd0
bc91ea43
3b791c31
bc8ee5b3
bc6f0d57
3d083b32
3c03dc9e
3b64887b
3ccc734f
3cb1d7e5
bc02bcf7
bcd6e986
bc90e06a
bcb94612
bd073a35
3c783fe0
bcd3c783
bca8aeca
3ce01552
3cd8f078
bc5dfef6
bc80a556
bb936fe3
bbb82cb6
3c8d7c17
3ced7302
ba7566fa
3ca980a9
3c6fe50d
bc6735d7
bc34c069
3c86d86e
3c89db2f
bd016641
b86868b8
bc0f2ad4
3c86a8f9
3c7ba0e1
bc330f7f
3d10e176
3c44f1fc
3cefcc1a
3cb04432
bb836ec0
bcb20628
3c1204b4
bc305b32
bb1274a0
3cbebc7a
3c8f2afe
3c8c4c3e
ba5b67c0
bbc79a94
3c1894a8
bbbf73f8
3c805430
bd104a5b
3bef4426
bc15e5c6
bd0cd2f6
bcb3a520
bc27fe86
3b9f3418
3d0c9c33
bb44e8b0
3c104c50
3a667680
bc3c3b4a
3b6ec970
3cf243ae
3adc7140
3c6f68a0
3a075180
3cbec046
bc4d2aa0
bca4c42a
3cbdc7cd
bca7741c
3b17ec79
bd0d0d8f
3c790e7c
3c4cc50b
3c8d6273
3c8b7c0b
bcc97ebe
bca01874
bc317258
bc9eb66e
bc90f025
3cc97d06
bbe6e561
3cfffb76
3cd2b611
3c8a1788
3ce1a409
3ccfae54
bcd1e9a8
bccc4685
3cb68bd8
3ccc3e3a
3c2de224
3c918528
bcb4638f
bd04fe8e
bc5689f8
3cfc3516
3ba2915b
3cd48cae
3cfd2f09
b9be3081
3ca291ee
bcf8a344
3c4cfe80
3caf5175
bc038ef8
3b8aecf4
3cb3213f
bcaf7de6
3d0f6898
bc38de53
bcaa675e
bc4eb6db
bd0b06cd
3ce2be5c
bc717164
3c0f3c8e
3cd7c9b8
3cdf727e
3d07cc4f
3ce035ae
3d03d7a8
bb5677af
bcaebe08
bbc3a147
378ab240
3d0b9c36
bcf18f82
3c939efd
3c9888f8
bd014823
bc97025f
3cb6e95f
3bc5bc66
3c72fbad
3d0af447
3ca13c3e
3c685c77
bccb5938
3c0db0ab
bcbcd4dc
bc379daa
bd07eb51
bc746a3d
b928fa98
3c582074
bb98e31c
3a9e9c20
bb3b1e01
ba8418f8
3cd74914
3cf65548
3bce2d36
3cf62918
bcfc4e62
3cdf5aac
bc3ed28b
bd1acf90
3c88cdcc
bcc3ada2
bd05ac4b
3c1ccbcb
3c8f8a3a
bc2e0acb
bca1231f
3c90ef79
3b07932f
3cb31f3d
3d1c712c
3cb584ef
bcb75c7b
3c7cb85f
3b1e6b8c
3cfc14d5
3cc87c18
bc0ad6ae
bc888a80
3cef1d9f
bcfae6d8
bd1126fb
3c9af3db
bc929ea5
bcc58222
bad489dd
bb826904
3cf1817d
bbb25f6a
3c1e35ab
bc0a1cc8
3cd89700
3ce2f3d3
3ba00447
3cd06143
bc44433c
3cc0fb16
bc66f779
3cf098fc
bc8b5f81
3bf89edd
bbb43a0f
3cd5a427
3855ffcd
3bdb6ad5
bc98af77
3a034514
bc4bf0ef
bd0bd744
3b4ce3c4
3c5e059a
bd148784
3c1168f4
3ca42c4e
bca8929a
3b4e2cf1
3c700d75
3aafd917
bcc4b811
bc50b221
3cae7972
bd10c0a7
bc5cd74b
3ca588e0
3d1a1fa9
3c5bb739
3d17b3f5
3ce95f59
3d1dcf3a
bcdf27fc
3b718654
bd0d50bd
bcc51023
bb62d8b0
bc025792
3c8c2d3e
3cb795eb
3c868a42
b9d76d4c
bcce2d56
bcc8b5cd
3d038a3c
3c569871
bc272ab6
3d184c68
3c4875a0
3cef9934
3cc52307
bc99a54a
3d126d71
3d03907a
3c235fce
bafee58c
b97cfc60
bcc6ee3c
3b92f8f7
3d216b0c
bcd39658
3b01f0a2
bbb3a2a2
bcb657df
3c97e04e
3aa2cfe3
3ca3f0c3
bcd13d15
3d04f060
bc9bec7e
bb61ee8c
3d0ba254
bca41879
3d275e84
bc8e8947
3b433969
3c571fa1
3d111658
3cfaab55
3c6acafc
3d2f6315
3c214b5f
bc7547a4
bc3f8d28
bc8dd7af
37ae5914
bb371f1d
3b74afca
bc08c1e4
bcd0abd8
3ce7e4ef
bd0ff54f
3ca1b852
3c9a4d62
3c3fb337
3b9fbc4b
bd0baf9b
bd03515c
3cda6381
3d2a2d69
3d27877f
3cef242e
bc4e4f78
3d2c857d
3ca86f69
3c170a12
bc2ad0fa
bc09c80c
3c7a990d
bc64dd4f
3cffdcff
bc6686a5
3c04d71e
3c545f4d
bb1f61e2
3bef54aa
3c388d45
bcaa18c9
3baa0929
bd05d5b9
bbccfbe7
3ca55640
3d0b7c49
bcbd43f9
3a3670a6
3ca25374
bc84ce2f
bc11d6c0
3d3b9a4c
3c1e0601
3c924b02
3c81a955
3c84d609
3d3518a9
3cf3132c
bcd77093
3c32211d
bc003824
bc327976
bc9d4d86
bca16be5
3b916e65
3c8ace34
3c99f5f1
bc2feea3
3d03eb40
bcdaad38
3c9ff726
bcc76ec1
3d0681b9
bc14fb94
bd062e42
3d09b226
3b77b54a
bca0eeee
3d054650
3b530251
3d63a84d
3d7836d5
bc18798b
bb40b46e
bc98bbe8
bcd08092
3c848a59
bbffd903
bcf147a5
3b60cc39
3c9f7ee0
3d12a591
bc317a0b
3c699acf
3c2a3b6f
3ca0f9eb
bcea13c7
3c96525e
3cb4339f
3d0fd75f
bceb140b
3ce86f25
bd0c6fca
3c807da8
bcdb2720
3cde790f
3d41c1fd
3cdda3af
3c059e70
3ceff9d5
3c996891
3c095980
3bd4763a
3a2eea0b
bc28f42b
3c0b8e30
bbc66a60
bc223954
3c443b68
bbb261b4
bca8201f
3d4cd56a
3cc536e6
3cd633c0
3d117d59
3ce81a4b
3ca1cb85
bc04c23c
3c71d86d
bb893fbc
bd05788e
3ca467ab
3d20e113
3d04f694
3d160d97
3bc0b960
3d383aac
3c8a85ce
bc34957d
bca52e83
bc131acd
bc8b3695
bd450357
bd354fe7
bd2e531f
3a438f86
39d69e1c
bbd86149
3ce58bf9
3d521a68
3b902b0f
3cb92a09
3cd47e06
bd097b9e
3d0f7bd8
bb06c699
bba44d2c
bade52db
3984abaf
bcf1b92f
3cd7bf9e
bbea2475
3d6441d9
3c5131da
3cd33dc3
bbbab778
bc9f2604
bd6c99f1
bc8df1ed
bd862d1a
bc002ba1
bd05542f
bd18c9ba
bc1f5313
3d2e94b7
3c8ed570
3ca5147b
3d18a9ae
3d35af83
3d07a980
3d109efb
bcce4e77
3cbbd4d9
bd08d8ef
bc96c7f4
3cf2d5cd
bc918a5e
bb8232ce
ba3218a9
3bd9212d
bc16dd91
3c923dd0
3d2272cc
bd023fa4
bd088148
bd5d9177
bd350116
bd4da93f
bc8d40a5
bc87415a
bd161398
3c99f88a
3c846ff7
3c881b8c
3c2b761e
3c933bf5
3c567697
3bf99215
bca3c662
bbe37a26
bc8f1c3a
3b335d1b
3bce1a74
bd0aeac7
3c032c11
bc8da34f
3d366ed1
bc85b7ab
3ca889b3
3d2fdb36
3c27126d
bd1e0aed
bc74d1ad
bd374e1b
bc0bbca6
bcf9252d
3b7e9a49
bb376e69
bc440d02
3c278331
3ca007a2
3c056679
3d5c6466
3d0e56a6
babb5926
bad5cbcb
3c8a17ba
bbf4a0c6
3cce91e5
3ce26c2a
b9cb3de3
bc0c57cf
bc804d67
bcc05be6
bcbc79ea
3cea8e86
3c5f07ae
bca3d447
bc95e925
3c65a932
bba6173b
bd4f27ab
3b8736ae
bcc9b13d
bc6014f5
bc91be50
3c8f3b05
39f9eb94
3d0896fc
3caf59eb
3c0f10b4
3b2578d1
3b755afb
3d183135
3b8b4595
3c31e21b
bc851078
3d059b36
bc83dcaa
bc00e84e
bd164e6d
3ccdfc16
3cd9570c
3cbaaffa
3cbd47dc
3cba14c4
bcdd260b
bd0ea9f6
bc17bfd2
bd00e595
bc9fdcf6
bce471fa
3ca0c43f
3c8a4ccf
3c25778a
bc34d15b
bca5c966
3c7f5515
bc29ae69
3d0d9e88
bcdb2ed2
3c497d27
bd0743ea
3cf2dbf6
bcbc7462
bc27e88a
3c608be4
3c9b8b2f
3c83cbbc
3c8269a8
bcbf5976
3ceaf271
3c3fe3e9
3b8c6dfb
bb9609fb
bbd2d4ad
3c06c8ea
bcdd7329
bc699353
3ccd6a51
3d1a0ed6
bc9b3490
bb96a0f6
3d39dcb2
3c1492b3
bcc67217
3ba4f262
3d0811b6
3aa72587
3b80c299
bc2ef0e9
bced5720
ba99cb20
3d110d49
bc1a3381
bc7ce240
bcecfdf0
bcce3aa4
3c899314
bb10b11a
3c69c90b
3d2dee1a
3c10b2f3
bc282c96
bc803ca1
bc8bf1f7
bc97f121
3c10f96a
3baec612
3ca6ab2c
bab557f1
bbbdefce
3d188c77
bc0199f9
3d0983fa
3c036f1e
bb989ded
bc81e2e3
bcff7fd0
3c943642
bc7cf95b
3cfbca0e
3cf8276d
bd0c2fa4
bca5a878
3d0afa83
bb1ef7f1
3cfd4435
3c62dde0
3d1da6e1
3bed99d8
bc529ad8
3cfa7f40
ba90f4f4
3d5eab34
3c7889ed
bc3c6844
3c438792
bbdeaaf0
3c5abe12
bb956e7e
bc816790
3ca50d0d
3ca5f54b
3ce8905c
3c2077bd
3bca3a76
3d0b1341
bc9fb61c
bc146e66
bcaef3ba
3ca685e2
39ce4128
b9c19f2b
3c04f26e
bc6e70d2
3cef3312
bc7c4e5d
3d17a35a
3cda117a
bb4a76db
3ba24de9
bc28c659
3d02958e
3d3d8a15
3788c2a9
bb48f39a
bc36278e
bca12ed8
bcf4f160
3b857b0b
3ca422fa
bc2ab5d1
3d089d18
bcf5163c
bc086a76
bc94e875
3cfdb256
3c4e175c
bba1d135
b98978a4
bbd745e2
bcf6c64e
bc2c8926
bce53752
bc7a6af7
3cfdf78f
3d202a9e
3d19e2b2
bc606530
3cbd5cef
3d1d528c
3cc1eccc
3a93426f
3ca67a7a
bc2f8ce6
bcf8767c
bc5c0eb9
3b90eaf5
bcd6fc69
3cbaa5bb
3cf61ffd
3c80bd27
3c1e48c0
bc0914b8
3d0e8175
3c4b7848
bc6e87b9
bc5eea5f
bc32d365
3ce18739
bcb8e1c4
3cabc99b
ba7b5492
3c0c38e1
3bef2ff6
3cf5c4b8
3ccba2cd
bd02ee07
3d0fd1d0
bd00dda0
3bbd0f96
bd0aefd0
bca2d130
3c1dd8ac
bc95d986
bc161fee
3d0422b1
3d01bfd4
bd03357e
3c4f42f3
bc9779ca
3b57c780
3a46e780
bd04b7a5
bc1f2203
bcffa988
bc8f80c1
bad3187e
3ce3a86d
3d133445
3c57f655
bc7decd2
3cd6cb14
bc69f83f
3cecfb60
bd03088a
3ae5fb06
bc64779b
3ce3d920
3be2ecb0
3ceb96f5
bca38e8d
3b7d8f9a
bb227242
bd0ee20d
3c8d28a9
3c70cd8d
bc86dee5
bc88db60
3bc85ea8
3cebcfde
bd058734
bd047ff3
bce2d9f8
39a8ca5c
bb918f41
3d05fa55
3b981691
3ccf4148
bb78532d
ba5caa05
3d0564f5
3c14d420
3c0d9a0f
bd06570a
bce62447
3cdb8163
bce7880e
3cf0cd0d
3c07fa4e
bc779bf9
bbe0adcd
3a7d9dd9
3d0b9206
3cf4ce30
bc9bca39
3ca85562
3c0cc828
bcdcc32e
3d0d1347
bcda3dbe
3cdacecc
3c869884
bce88585
bd095624
bb6f5432
3a6fb065
3b948fe3
bc8cf943
3cc085d3
bc4303e9
3ae0fd7e
3c385efe
3c9e75c2
3d0f45c8
3cf877b7
bc84f77e
bcedae0f
ba94db99
3cec18e5
3ae0d887
bd0defdb
3bfced50
bcd191c0
3ce1bbea
3c93771c
bd062bc7
bcd202bc
bba852a4
3d099677
3cd68c9a
3cc95782
bc30156a
3cf2609e
3d084049
3cb55dea
bc444758
bcc4c030
3c07c1ea
bc620585
bcacc71d
3c3ef38b
3cb60056
3cee76ae
3ca3326c
bb8bd538
bcd0f94a
3c8debfc
bc9770b5
3c8efde8
bc7da298
bd0ea8ee
3c56abe4
bbc268d4
3cfa679e
3ced6cc6
3ccee5d8
3cc4f1bc
3cd33c7e
3cbdcf0e
3d03459b
bc01723d
bc950d0f
bcd292d8
3c86bc4e
3c92ba2c
bc094fa6
bcbf913e
bcc738b1
bcb59876
3c532c56
bcf7ad5b
3c2394fa
bcf92fd8
bc88a3cb
bc86e7d0
bc144052
bc308993
3c189b08
bc26552a
3d02fa23
bcdd6f18
bc97f715
bd0c61e2
3ceb7b8b
3aebee66
3c54a41d
bca277b1
3cbd287d
3c0eee33
3b6806aa
3d127281
bc9e11d0
3cdc7e6a
bcc32828
3cac34ad
3c896b44
3b3ddc23
3c81ba1b
3c0afef7
ba02a5a6
3aae0e40
bced0a4a
3ca99a01
bc5d0c07
3baa1eb3
3cebc7b1
bd0ee1d1
3cf09dfe
bcd21480
bb986fc0
bc996ff3
3ce47b7e
bc81e4fa
bc1241b2
3cf32e67
3ca79760
bb9d67d8
3c711d66
3cd1e93f
bc3d972d
bbad74eb
bc860dcf
bcb45f8f
3bc7c548
bc15fba7
3bee44c9
3d099dac
3c2dfb2f
3ce9f3f5
3c87a72c
3cd8be44
bcb5846b
bc32d832
3c2b5f49
bcc29874
bcaca66c
bc0f538e
3c2f3634
bc931d83
3cad5997
bc288322
bc282ee1
3cf4f486
3d08d3df
3a5311a6
bc8aa336
3b442bdb
3c9d3ab3
3d138135
3d0a679b
3ce9e776
3d4e4d80
3ce738ef
ba6b0321
3d3fe14c
3c7a165a
3c57829e
3c1a4322
bd033101
bc82ad17
3cf110d2
bc11aaac
ba445cac
bcbfa3e6
bd034498
bcd3aabe
3d0c60b1
bcff45bd
3c1f7f3b
3c84a999
bc292821
3d1d4795
3d0dc5e4
3cbf6fd1
3d3994b7
3d491dc3
3d6510b6
3be09282
3d468c20
3cf8cbb2
3d00f8f8
bb60162e
3d0f92ff
bb5e9415
3c3e39c4
3be60575
3b853291
bcb50139
3d07bd9a
bcb81261
3b919ea0
3d06e492
bce0a4fc
3cb17996
bc4477d2
bbc41ada
b8cb7a24
bca92281
3b14242d
bb8be36a
3c848b14
bc6346e2
3d605744
bb8322eb
3d7b538c
3d12da27
3d3f9655
3d2b2320
3cd8497b
3d165413
bc139a43
3d1775ee
3b91f092
3ceca579
3c8b4e76
3ca4b846
3c4469e5
3c54991e
3cab60c7
3b99d1f0
3c8bdd0a
3c495209
bbc6009c
bcd67e38
bcca954e
3cb1aaaa
bb9de7a6
3baa1602
3c4665d0
bb83e96a
bc6ee954
3c6b37cb
bc41fdda
3caa53f8
bb25c9c5
3cfb42b7
3d03f135
3ce21505
bcc4a896
ba041a6e
3d098da6
3d177f7b
bb6a4602
3bb7d208
3c133ec2
bca578c0
bb847b8c
ba61833e
bcded115
3ceb2076
bc2aec69
3b41946b
bcfe5e6a
3cacf780
bc8fa222
bcbae8c0
bb5a8579
3ba9c348
3c84f84e
3af5d07b
bcb447bc
3a91e04e
3d1a4552
3d12450a
bc4b3462
bb9c2438
3d346564
bc94679e
3cb55ab3
bcc17466
bd079270
3b567d5a
bb004131
3c964d4c
bcf7d747
3d0b6095
bc9ba034
3b830ed1
3ca5b979
bc5bc670
bcaadcbb
ba0060c8
3cc81445
3b9a79ff
3c1fe063
bd074464
3aa4b61c
bcb11fcf
bd0219c3
bd346e2b
3b85dbe9
3d218b9e
3d5a0c7d
3d51ecab
3c80bf0d
3cd3d9da
bc9613bb
bc1141a4
bc8781d6
3c69b2c9
bc36afe7
3cb318f2
3d010940
3bba3c60
bcfe9bc3
bc288cf9
3b86af99
bce321f2
bca910a2
3cb17dfb
bc875823
bc823242
bc62954f
bc97301e
bcfe7aec
3c4b61fe
bbe58a56
3bc856fb
3c096503
3d3b95dc
3d0f28e5
3cb7d285
bc4709a1
bcdae94a
bd37b33a
3cae64c3
bd2a5795
3ce1106c
3c2efcc5
38ce666b
bcd9311e
3c03068e
bbdbf145
3c1cdcd5
bcb48692
3cfcb587
3c76455a
3cf122e9
bc92d9d6
bd2ae301
3c5c33d3
bd11bf43
bd5f4b21
bb8714c7
3afbd197
3cc217ca
bbd3de82
3d17e1cf
3cb2464f
3be99d25
bd0d004f
bc028260
3c764448
bd1f662f
bc7b7092
bc96c4b3
3cd58be3
bcca08bd
3c9fa6d9
3c06acdf
bc1cdb85
3cea8914
bd02164a
3d025557
3c3a94d0
bc34bf3a
bcd572c2
bcd2bdd2
bbbd574c
bd1f7148
bc9ba040
bd220f45
bcc530d5
3c951022
3d021a3b
3cef0f45
3c798c1f
3cc77f4b
bae6f704
bcb04423
bd097964
3cc407b4
3c4cde8e
bd1e7789
bbc72102
3b4d0a3e
bbaeed34
3cd0be0b
bcb55cd7
bbc45fad
3cbac506
bb31bb81
3d0a7091
3cf9099f
bbd3a1c3
bd14fc6c
bd1464f2
bd2678f0
bcc7b284
bc5f9b16
bc8353a0
3d1f2760
3c9f3944
bca74c1a
3c9caec2
bc6f61d8
3cb9b5b4
3c5e39d9
3cfd8156
3c6b0be8
bd0958ac
3c2709cd
3c6351c6
bce7f298
bb421691
bb86760e
3aaded19
bbd6c7ad
bbc05f65
3cd54b92
bc9c8e1a
bcde2ba8
bc4458b4
bc3dfdcb
3ca073ea
3c17901a
3ca2816c
3c03c9f2
3cf5c6c0
bb0abdef
bc08e438
3cbd8fe6
3c3f8e7a
bd0e15e4
bcbf9194
bc72c899
bc742f8b
bb1463fd
baf10993
3c80c1e0
bb45a492
bc9682b7
bc23d169
3c934344
3cec573a
3d0cdd5c
bb81293b
3b83c3e8
3c8b2313
3cf00c74
bcaf673c
3bdce3e4
bd1fba43
bb56b14d
bce5fa8b
b9072edf
bcb8e31d
bc14d271
3c121485
3c09c77b
3ba5f2a4
bc1b45e4
bcdaa94d
bc550d38
bb71a24f
3d21e7c3
3d015d8a
3c9e7b95
3d07cf61
bc853c73
3cb20ffd
3a7e93ec
3cec9255
bcc2e7ca
bbbcbbbc
bd0f782a
bc3bbdd7
bc3cf0ec
3c6e1122
3c3f896a
bc2c85bb
3c790372
bb4e227e
3c7ff4df
bd3686b3
bcc1b4d5
3ca56690
3b7644ef
bb5b1110
bd2ba58a
bc101ab1
bc4813f6
3ce7dd57
3d3e3f12
3d49f50c
bc645560
bbe4bddf
bc227d8d
3c07cc82
3b5574e8
bc61fa4a
3cf8091a
bcb109ee
3cea0c3a
3c9dc9b1
bcdcb897
3cbc22e1
bc4fa93d
3cb4c1ec
3ccfd02a
bc8c065e
bc2dc479
bd02d2ea
bc75fea0
bbc8236f
3cb127fd
bce93e51
bc3fe828
3d3a3290
380b2986
3d11a726
3d171f65
399d4bfe
3bd6fe1c
badcad3f
3bf81aba
3cab327e
bbf0ff1c
bceca5c3
3d118343
bcdf4627
3cc43fa6
bcad8ae6
3c9ccaac
bc8d1282
3d0356e5
bc2b76d9
bc03220e
bcf82832
3c58e46a
bcc12f35
3ce9e3d0
bcc738b1
bb82a449
3cab1b87
bc56e533
bbdbcbcb
3d63fecd
3cf30595
3bae4086
3d5933bd
3d0d7a75
3cd92008
3cc7aa90
3ce79d3c
3cc9033c
3d0ff720
3d0f9a36
bc9bab84
bb2fec66
bbd1fa81
bc13f6a3
bb22819a
3d0bfad0
3d7961a8
3cba632a
3c194dd1
3d1e84c3
3be80578
3cc971eb
3d1e7eae
3c440aa7
3ca4a4dc
3d802058
3c8d2893
3d03c794
3bf70a10
3d73b728
3d1e632d
3d1a28bf
3c096112
3b426777
3b8ac768
3bca4718
3d0bac4c
3c1f2928
bcaf79c9
bd06d405
bc9d1f20
3d2cc8ba
bc3fa35c
3b08e738
3d2ea535
3d05beb4
3d41ce17
3d47de06
3cc66a8e
3d4c2d3e
3bfd193a
3c9c8789
3d2ea1c8
3c9261ef
3d50c17d
3c9d0fac
bb26cd20
3d1a702d
bc276792
3d159e0f
3d0f2bd0
3d150be7
bcefbcf4
3bda91f3
bcae2ee6
bcec5535
bcd5ab1a
bc9aa801
bcbcdd8d
3ce4a845
bbf6b98e
3d4b11a9
b85c364e
3c718faf
3d0b2541
3d2a811f
3c4d7ecd
3cf51ac4
3d5cf107
3d5fc7ee
bb07dc37
3c268d95
3c54c829
3ca211f4
3c8072be
3cf2236c
3c422275
3cf81c7b
bb8eca33
bca680d2
3c45b9ee
3c894dfd
3caca2a1
bc284fcc
3cefffb4
3cb2f5d1
3d01414d
3d08dc00
3c1002f8
3d35e06a
bb7c097d
bc116410
3c1fd924
3b2f9db0
3ae22074
3bec51b2
ba521af7
bb32c910
bb962003
3c6dc181
3b951282
3d1f4c9f
3c19b293
3c08adee
3c8d2b83
3d05e86a
bb34dfef
bcf80cd3
3ae42ec2
bd0eb4b4
bd04ed6a
3be29c50
3cadeb5e
bbe7a1fd
bc27820e
3d11327d
3ce6dd10
bbab0d03
bba206c5
3c1aa55e
ba7c89c8
3cab8640
3cec5ca5
bcf6e933
bd06aad8
3c72291e
3ce327d5
bccb21eb
3c1645cd
3cd9ae16
3ca194f6
bca8e9f6
bccc8c84
bbc44b13
bc5b55e9
bb98590a
bd0bc943
bc6398c9
3c87379a
3c434cc4
bd0bb400
3b736e0b
3af54a63
bc22acb0
bd013888
ba8ef9d5
bb1de949
bc83e5f4
bbf4d47f
bc9f6736
3c209815
bd2705cd
bd28c709
bccfbdd3
bc68f7a6
bcec6c4c
3b689321
bcec0218
3c8155ec
bb986c09
3c11c321
3cd5358e
3b94a477
bba42f7b
3c0323b5
bb5dba2d
bd0148c0
bcb1b2d0
3d066543
3cdc1638
3c8fc2a6
bc10068d
bd02ece2
bcc46b0f
bcf200d5
3c85a4cf
3b419198
3c0e0b58
3ccab2b5
3d040892
bbcb1395
3b96ff3d
bc106e08
3ca4cdfc
3c3c79bb
bc0acd58
3acf26db
bbf69685
3cbff6c8
bcfabbd2
bcdf364c
3c2bf1fd
bcb8fdbc
3c97f5f4
3c752f3c
3c46a2f4
bc7376c6
3c8f1562
39dfd658
3c093589
3c311dd4
bd0bae2a
3bbf63b3
3cf7517c
3d06fb37
bd02dbce
3c42b5a3
bcbb2e14
bcb42112
3d095fe1
3af2ed7f
bc81bc1f
3cb7124f
3bbc928b
bd141fd4
bc81f55a
bb294706
3c914e66
3cd8a7a0
3ced7135
3c47bef6
bcdd8903
3ce5bbc6
bcedc863
3c597bd8
bc794c94
bc159b6a
3cdb3977
3cb6fe69
3c87c36f
3b6de5bd
bba14524
3cc40d68
bcd4363d
bce1d3a6
bb44e411
3c464413
bcfb51c1
b89bfde3
3ca29e7d
3c1557d3
bc8d91f4
3cfaf508
bc2b9c69
bc34fce2
bbf82573
bc9bfe96
bcc46dbc
bd092910
bc6de6c6
3cc1990c
bb2f78e0
bb19a7b0
3d076289
3cf29e1e
bd01b7b3
3bc2ddb0
bce25290
bc66024a
3ce87852
bce13bb8
bcb7998e
bb229320
bd089082
3c2003f7
bc22b86a
3cc326cc
bc560ab8
3cd4f99e
b94db900
bd0f479c
3b0b0760
bc8ee59e
3d078b19
3d018a49
3d072221
bce8cc1c
3cda80b2
ba8df400
bb76f250
bc4f64ee
bcd4d028
3ce300ae
ba738160
bc61848f
bb663ae7
3c604a4b
bd0e1f64
bc702f66
3cab928e
3bf61f95
3ce93012
bccd7eef
bc921d79
bc85aa54
3cc123ac
bc6e0449
bcd89322
bd10cb09
bc95f22f
bc4e060b
bb974285
bc582a94
3c4b6b04
bbc4351c
baf7a1a0
3c477194
3a7bb2c0
bc1b93b2
bd0bf0fe
3c06954d
3c8e87bd
bc84c2cf
bb43ed52
bbf0a2b8
bd056d6b
bd0d8a72
bd02797a
bc21c650
bc508362
bc72fe41
3ce5e37d
3cd564e3
3ca2654b
bd1b6151
37c9ce30
3cd57dc8
3b1ec58f
bd083e4f
bcd33207
ba551e8a
bb0d80eb
3cec4ea5
bc8d728e
bcd44910
3c74f1dc
bc9e763e
bcfed74d
3cf4f90e
3c39ec8b
bcd38481
3d0ed26d
bc3b756f
bc2a9e18
3c5ef44b
3bca3e62
3d008367
3c882985
3c6f6fb7
bb3c101c
3bdc48f8
bb8fa908
bd1d4bcc
3a0a99fc
bd00ec93
bb4b2b32
bcc651bb
bcb7b458
bd06994d
bcc12278
bce7aeb0
bd048210
3cb76748
bccb66a0
bbbf1ac6
bcf2d403
3c3e00f0
3cb86c45
bca00bb2
bcda2779
3c9773d2
3c4052a5
3b7ef2a4
bbe14736
bc043b9a
3ccf12ff
3cf6107f
3c99ccd9
3ce5b135
3cc9109b
3c8b2e2d
3a2305c4
bcfe0596
bbb25a54
bcd31383
3cdb46bf
3a0a849f
bcb1b409
bcee9c8e
bbd72f40
3cc33f88
3cbd2b3e
3c7d581c
3cbcf7c7
3c49b3a1
bca4938e
3d035d38
bc33b0ed
bcf14931
bb8f05c3
bc85ddf0
3c995d08
3d366d2f
3c4d94c4
3d3282bb
3cda7a61
3ba943b2
3d48f5ab
3d5e0d98
3b3c9129
3d04ea6c
3c937c20
3c7eb71f
bd1e5b2c
bd1178c4
3c4c50e0
3bf4e536
bcc28f9a
bc2fac4a
bc30252e
bcadde31
3c55c366
3cb0337f
3c057528
3ca830aa
bd02d514
bb9bb876
3d0b084e
bbde9e4b
3d2706ba
3ca50200
3a413bd4
3c84ab2b
3cf30878
3cb74e71
3c85244f
3cf0de4e
3d43d12b
3ad118e5
3d017d94
bc2de8b9
bd06aed4
3c3bc02f
bcd6cc13
3cd7670e
bca52784
3cd72131
bcde3b5a
bd0dfa9c
bc704aba
3d0610bd
3c43d186
bc27b861
3c26a7c1
3c61ca7a
bc6bf951
3c0621c9
3d0fc3fc
3a31b876
3cf47ccd
bb8c56bd
bcf944e0
bce86757
bb94a0cf
bba8a504
bb4c8401
3d35a3ba
3ce67f3e
bc4f4b7e
3b7f359a
3ba87d37
3cc88e55
3c99d5f4
bcc828ef
bc8047a5
3d01e1c6
3c08a241
bb2a6143
bd0ded90
bd0624d6
bcac0ed7
3c458b8c
bc7a2cd6
3bfd797f
bcbc9f72
3b75d567
bcb1caf3
3cc69ae8
3c78f44a
3bb594ce
bc1c09cb
bbc55387
bbf5b3e4
3d051d83
bc9594c6
3d23b77d
3c2d65c3
3c3c6bdb
bb72963e
bb5f3534
3c6c0608
bd0cd755
bd043175
3b933f55
3ababfa7
bd0d091d
3ca6fc7b
3bd305ea
bbaa4e69
3c06622c
bbf47f3d
3cf42dc9
3cbcc267
bc086222
3c6c8d17
bc874409
bcf9aabe
bbf5571d
bd27aad6
bc488196
3bfa7c71
bbb28e50
bbec98b5
3cd38c2d
bbacd0d1
3c0d25a9
3cfbd674
bc6838f9
3d015cc5
ba54eb86
bb6bf7c0
bc8b6dbd
3949b87b
bcafedef
3cf936ac
3d068d01
bbfc581a
bc7a16e6
3cdbe09f
bd0f41e2
3b7bdb74
3cf6231a
3ce60db5
bc377f3c
3b9517e9
bd5379d7
3c6a50c1
3c7191e3
3c81e30a
bb87b020
3bd9f3d3
3c877efb
baf97319
3c7a66ea
3c028151
3c140bd3
bbe2e67c
bcb9c36e
3b19a336
3d005981
3a7577e6
bc69c3c9
bcaba9d1
bc76bd2c
3cafad8e
bc7ce91e
bc37c677
3c5ae936
3cce44b3
bd155af6
3cc44aae
38f8de26
bd388eb6
bcc28e15
bd137285
bcb4f2c7
3c4545ac
3c290f7d
bb15fb3e
3d2e2407
3c42a15e
3c2c39d4
3d25e3c5
bd01d60e
3b92c7cc
3d11494e
bcfcd633
3cefb93d
baba36d8
3ae0b982
3d092559
3d066753
3d08d74f
3c7090cf
3cc27ea8
bcaa96c1
3c3729b2
bd0662fb
3c887020
3ce63526
bb64f8ea
bd212a42
3c5d47cc
3c19812e
3d201ce2
3d088ba8
b98d37eb
bccafcdb
3d02fe64
3c3fb4fa
3c85cdba
3c6f5c18
bcef2454
bc9cc459
3bb47855
bc917357
bcce3991
3bbf4094
3d007719
b8b49c21
3bcb6f9c
bcabaf37
bc946136
bc599e6f
3c24400d
bd0c5776
ba9e5ebf
3c1f78e9
3c534051
baa04a65
3ca99637
3d03dcbb
3d03e859
3cd0b365
3cc18038
3c6b8954
bcae6d04
3c89ab93
bc5a2659
3ca4031e
bc643574
bc076f93
bd05b969
3b8b46f3
3cf1bbbd
3cb4b50a
3c41bfd9
3cbc1e33
bcc96296
3d0006ba
bcb01f5b
3b818826
bccb9161
bd396497
bc1d685c
3cf43334
bc3150ba
bcda8605
bcc01494
3bb063f3
3b7632d7
bca8845c
bc99c61e
3c358531
bd214b0d
3b777e6a
bcc06d5d
3ca31716
3c59d71f
bc260367
3cab3485
3c7200cb
3d0487ba
bc46f589
3cc69102
bcbe308a
bd05cc5f
bd0d33a6
3b45a353
bc464327
bc7fe6e3
3cb0d6b1
bc5f502f
bbf78bca
3d47fc6f
3ce2feb1
3ced5bf0
bce9df92
bcdfc95c
bc93b846
bc53afc8
3cc4a96d
3bf86f49
3cccdb35
3c0935a7
3b3f40d9
3c5b2733
3d0f18b2
bcd384fe
3ccee601
bccba3b6
bd0f750c
bc82d634
3c881e7f
bb7ffe51
bc234ed6
3bbd4df6
bba95999
3d031bcc
3ba0d480
3c2cdc0e
3c252cf0
3d305bb5
3b1ea4f4
3d2363a5
3cd17af3
bcfb8b87
bd0d7081
bd05a186
3c7dbda6
bc430bcb
3cb151fc
3ca54aed
bcb92562
3c60eafe
bb1cc321
3c65471e
3b393210
3c19f485
3c2fe376
bcf59aa1
bd01b317
3cddf2ac
3d26fd13
3ca9f5cf
3d44cae4
3ce63ab1
3d6d323a
3c1813b9
3d75c97b
3d228c2d
3c37aab0
bc79ce77
3cb55af4
bcc1ddab
3c4fe567
bad22ab9
3ca097df
3a39d5e8
3c7a245e
3caffab1
3c8ef2f2
3bfd403c
3d02390c
3d03b7c9
3a27be96
3ca75e23
bc8b8d5e
3c851f68
3c836918
3d251e49
bcd77c09
3cd65715
3d45ed9d
3c85b4bc
3c7bbcec
3d4e56b7
3c70772b
bc36c9b4
bd0c3cbe
3cac3005
3ccb95e7
3c7c620c
baf62f3a
bcba6276
bbf745fc
bd1063bf
3b627c68
3c2771ef
3d131651
3c2afd00
bc6aa4e0
bc486103
3a94f28c
b9b25e74
3d00d45a
bba62dc5
3bb05f5a
bca8e6d2
bbe8d13d
3c388212
3d53793b
3c6b5f81
3cdc9d9b
bc0956f3
ba8f5c98
ba4d7afd
bd1aba44
3c26c841
bc5f8429
3cd017bb
3c2302ea
bcc2d260
bcd15e2b
3c5fdc03
3cbb89b0
3cd3a6f3
3cc722bc
3cda1c34
bc5069e0
3ce00eab
3c2dc89c
3a3ff666
3cf07de7
3cd0a1b6
bcfeb650
bc84d816
bc15d938
bacd2e9e
bc5ef256
bc1c31e7
3c6cc963
bca353ef
3b0a2c55
bd100ed0
bc37ba60
3c89fb00
3c8494a7
3cd1cae5
3bafc618
3c811609
3d248a91
bbc15dcf
bcdec3c7
3c4c7435
3ac2f3c4
bcf5a5df
3c92370b
3c8d5dbf
3c48ff38
3cec2ad5
3cf50675
3c162667
3cc780f5
3bff44c9
3d1100d0
3cf2ff0e
3d260ba3
bc149b69
3cbf06cc
bbb163a7
3b64f74f
bd477dd6
3b831b40
bc94f06d
3c58b9cf
3cf1346a
3c8cde8b
3d38ad0a
bc4a741e
bcc48831
3c8008d6
3bf62780
bc43004a
3d12d1bd
3c71f465
3cfae23f
bc6bce5a
bcd97b77
3d05b4e1
bcdd3340
3b64f1f7
bc9de461
bc431c04
3cfad356
bcbe0f1e
bc91f5a5
bb920b08
3b1c5c04
3d079763
3ce4185e
3b83d343
3c07fe2a
3bada798
3cc4f118
bcbe4ee1
bcda24f4
3c41d455
3ccda1d1
bc399fbc
3ccbb3c4
3b40dbcd
3c0a19db
3bc08eac
3c9fc15c
bc1ac20a
bc2f4a12
3bd1ed74
3c9dead5
3baf1357
bcee02bc
bcdd9e44
bcc48fe8
bc844ef9
3cfbc503
3d0cdb1f
3d1fce47
ba9d7176
3d13ac99
3c99bbe2
3d2c94ef
3c7f2c07
3d15ebbd
bc9ec0bb
bcc7d060
3cab3dde
bbfc17aa
bcd33153
bcd4e801
bac845ba
bc87f7c9
3cb9d401
bd05172a
bc833530
bb20b3b0
3cd7c806
bc8ff986
bb4e4f5f
bc852e0e
3ce61da9
3bd35eee
bd12795b
b8a46211
b8b8dd88
3d10383e
bc5972be
3c71af01
3c5f38a0
bc93656a
bd0162c8
bc40e717
bc3435e3
bc69d539
bba4bbba
bba759b7
bb95ef6c
bce5a3f3
3c52ff48
3c0c81cf
bcfadcd9
bcbdb025
3c99ad50
3c5cf708
3ccc8c74
bb8cda47
3a093d82
bc80430f
3bb659dd
bc9725ed
bcf8650d
bcb86926
bd269fc2
bc8eef70
3c8c980e
3c8854c4
bce1fc8d
bbd1ebe9
3cc4ecfe
3c936296
bc37e7e6
bcc64c66
bb7fffbc
3d020108
bad0c9d3
3cc9a8d0
3cad0282
bad037a7
bcb86d0d
3d0e5231
bbf67730
3c7ca5a8
3ab8b100
3c0b9171
bce38d70
3b0f0ab9
3b8b7b54
bbe20a22
3c5c8705
3bfcb32e
3c85a868
3ca721b8
3c9fd909
3c2eb7c7
3c3c5b1d
3c501d68
bc945d9f
bcad0c62
3a1855db
bb01130c
bc360752
3c9f92ad
bbb317ec
3bb3f5ec
3ca906af
bc0b5e5f
bc5a17d8
39f05700
3d0f24e7
bc67798a
bd086dbe
3c8ef2a4
3cd2b2e2
bd06094d
3cc1e715
bc982cce
3c7ef170
bc22167b
bc4ce2d1
3c2845a3
bce4e678
3801c30c
bd1014e4
bbb00688
bc988f70
bb7d03b1
3c62f2f2
bcf4cdf0
3cc89fc2
3cbd07d2
bb53c4be
3c17f0e1
3c130e44
3c4e85b8
bccfe615
bb885590
bc8275ee
bc2a719c
3d0e8bb7
bc746960
bbb95d5c
3be55210
3c7bd0e8
bcebb2ba
bcf62228
3c54ead0
bd0b671b
3c87a640
3d0cd572
bcaa5854
bc82a63d
3c96027b
bcce13c0
3d070057
bcc52765
3c6cacb8
3c4eb5e4
3b8e3090
3cca6dda
bc2cd132
bcd89348
3ce51776
3a9c7300
3c057568
bcf3e395
3c983378
bcb4f74a
3bbc6c40
bb14c59b
3d10907c
bc8eefee
3c564cc6
3c534697
3d0bc889
3cff6587
bcc4668e
bd08888e
bc2a0c4b
3d0b9406
bc84aab8
3cdab1e7
3d036fcd
3bed9a9e
3ca373d6
3cbe4381
3cf0fd61
b9c854e6
3b63c9a9
3be61670
b78eb800
bc0fc78a
3c371bf0
3ad706a0
3b340fa0
ba5f1258
3c973027
3cc6a5d3
bbc73825
bcb2aa1d
3ca016ab
3cbf7001
3c1c381d
3d04d2c0
3c80fe53
3c8d1f06
3cc9dd76
b9c6ff5b
3cc32d0b
bbadfc2c
3b2c741d
ba402874
bc54c56c
3cc8de16
bba71b96
bcff8c03
3c66e572
3d05cdb9
bc3bb824
3d00a18f
bc4212a0
bc9c95a3
3c884c0c
3cc6e65e
3c8ca38d
3cd517e2
3cae775a
3c395dfd
3c75fd4d
bc3b3ecd
bd0d2ffa
3c02aecf
bd1f85c6
bc8c6342
bcf3eb5e
bbdbef2f
3c068707
3bc69f8a
bd035b94
bbc27dce
bc7145d0
3cfb0dbe
3b3afbc5
bcae538e
bcf6d6e1
3c8d5a67
bcfe9b1f
3b731b64
bbb3df94
3cb2f098
3bb587fe
bbaa98a4
bcf8d51d
bbf08588
3d1078e6
3c991b45
3c4464d1
bcd020ec
bb901f0e
bcc62e52
3c67eb76
bd145996
bcdd55de
bcb84530
bcbe3778
bc9f2ec5
bc411769
bd074f24
3c1e0601
bcef1832
bce93656
3bab5dac
3ccf09c7
3cf5a09e
3d0f5ff4
3c5452f1
bbfad8ba
bcc0d19a
3b88cd40
baf884ce
bd00830a
3c34bebc
3b834e8c
3d0d0c7b
3cad1825
3c9b9d07
bcee7df6
3cd9964f
3cdcae7f
bd2ce3e7
bd15df9a
bd2f5c83
bb8893fd
3bc04647
bbcbb24a
bd5803d9
bd164a21
3c39eed3
3cefa9ae
3ce7f3aa
3ca16e4b
bcf2daae
bc18dac8
3d0a002d
bcfbebbb
3b8688b8
3c10e296
3d0095fb
bc42e394
3c31aee7
bc17c17a
3c7f4ac1
bcad4489
3d085cc9
bcaf4d94
3c69c372
3b919aa1
bc26fbe0
3b8f677d
bbb0fcb9
3c18413d
bc6e19d7
bd1edd23
3cf8335e
bbf2c772
bcb40308
3cab43bd
3c8d2435
3c74de36
bcec1a8b
3c0be3ed
bc74b37c
bd00d497
3c2790c3
bd061f3c
3cd1b1bc
3ac662a0
3ce2b97a
3c6c50c7
3b8b733c
3cb825e2
bc5ddd25
3b0d0a5b
bc079dff
3d039a28
bab3b072
3cb37bcd
3b802608
3cad3154
3d686de4
3d5b216e
3d4adf57
3d524bdf
bcc3ea9d
3d1a200f
3ce904eb
3c9b3426
3d174ff7
bc9991ef
3b25bd9b
3cb73beb
bc22f22b
bcf4c880
bcf8755f
bb681da9
3c130eb3
3b7a4c7f
3c86cb6e
3d427b30
3d39bc5f
bbf05097
3d4b6f85
3c59ccb9
3cfe93d2
3cbcb30d
3d87148d
3d6dedb3
3d49241b
3d6a588d
3d860ba5
3cb716e4
3cb991ad
3cbf9ea8
bcd9d08a
bc30b069
bc82f214
bd033b0f
bd095e6a
bce10e81
bcd8f2a3
3c86e1b2
3cf37e0a
bc2e8a52
3be87e12
3d2a9b0b
3cc467a0
bc0d01f3
3d12979e
3d586230
bb37897c
3d111a25
3cd5a17a
3beeb57f
3ca3c277
3c0893de
3d31d52a
3daa0849
3d4e2a0c
3d714d8e
3d60d52d
bb8f27c5
3c9f64d5
3b51dfb0
3cabae79
3c5209e1
bb184dda
bb74de02
3c97a435
3c8381b3
bcdf1b1a
3b819dde
bc8381a0
3bd71220
3d357229
bc8e4648
bbaca547
3d5b5b4f
3d80f894
3bd5c65b
bb9097d0
3cf82f43
3ceb3b06
3d1fb8f2
3d915029
3d219366
3cadedee
3d716919
3d2fc0ad
3b908161
bbea2d6c
3ce574ce
3b221d95
3c1439cf
bcbc9ad3
39d7f435
bb01003a
3bcc24fb
bc774e4f
bcb7e4be
3d07b5a8
bcb24790
3ceed819
3c8435fa
3b40b4cf
3d6ca2e7
3caf0c3e
3d1a83dd
bb23b8b6
3cbba3cf
bbbbde9a
bc3ae466
3d4998eb
3cd36195
3cdf165c
3ca2f195
bca02be8
3d17170c
bc3d4d82
bc945062
bcf3323c
bce6a968
bce0a1a4
3ce1bd20
3c30714e
bcb33c7c
3cfc547d
3bdb0143
3b820bba
bc2f095d
bc2082f2
3d2c5704
3d31a44e
3d4e0e26
3d5168b3
3d267dd1
3d474ae2
bcaa461a
bca3360e
3ce0064b
3a3fb108
3ccf7854
3d9be49c
3c6073d7
3c1eb6a8
3ce34738
3c3fe54e
bc6a0aba
bd117c4f
3cdceef4
bbd38fb4
bbad5991
bc6a1fc5
bc8572d8
bcde81c8
3cdb86a2
3ba73b32
3d1e8882
3d043eba
bb198476
bc15d0b0
3ca5dd59
3d2e4aca
ba047956
3cb6c2d3
bc8072dd
bd0b64e3
3be83014
3c8c7d08
3ca6b0b2
3d0352f9
3cd3ba17
3c31e1b0
bba82519
3c6abaa5
3c8c09d8
baa215ce
3c83c4c4
bc25bdbe
3cab352a
bc9b7182
3beb3c8a
bcef29fa
3c4bf502
3ce08934
3c881609
3cb9068c
bbd00da7
3bb6b523
3cb36bc9
3d07bb8a
bb8c8f38
3c1d73bd
bc5aa0b2
bc8c0df1
3b46b1ef
3d6436a9
3d08326f
3d52dafc
3d316e15
3cbd77a6
bceee47f
bc09c6c4
bd1f705a
bc2714e2
bbf0d589
bbc87419
3cdf8e46
3d10b0d4
3cf1eb22
3cca8b79
3c8c9c6e
bbdb70fc
3d090c71
3b27ac6b
bcc8a1ce
3d1941b4
3cfa3dea
3cccbd4e
3c77fc93
bc8d52ec
bd32f4f0
bc7a1cc0
3c46421c
3d89e3d3
3cbb759a
3d0919a3
3c83c918
3ad08b02
bcb6ca42
bbbbc30a
bcd11273
bb01a66c
bc2317c0
bca2da69
3cb2b437
3c7674d0
3b8a20f5
3ceaae0e
bcc98321
bbcce592
bcfe1884
3ba14d77
bcb9e314
bbeadd20
bb8a9122
bcfff794
bc566246
bd5528a3
bd5b5ec9
bceaf56e
bc92aafa
3d325a3a
3d9aad56
3d849f14
3c835679
3d1f0a7f
3c2bd69c
bcc95635
b9ec0c96
bb8cc84a
ba69eb2c
3bef8f83
3d0cf98e
3cc5bb52
bcc84a83
3cfa3aaf
bcf7b2dc
bca62ec6
bc40a67f
3cd7e550
bcfcec96
bd5dfb60
3c04b473
bb87a228
bd5306f6
bd21a341
bc301407
bcb0eb0f
3cec32f4
3d8a53e1
3caf6ac4
3d2361ac
bca22e9b
ba2fef5e
bd17be90
bc56e87e
bcd30beb
bc3ac33e
3cd8aed9
b9bb456e
bccf6f57
bbe8cc9c
bccf9bbe
3cb59c72
bba2b6ea
bb3b35fc
3cddfb90
bc027bfc
bca30e9b
3c1d389d
bb422a90
bd2ab10a
bd61666e
bcfc29d5
bd73c047
3ca7e1a4
bac1a950
bc2315c2
3bd9e642
3c401fd0
3c17d029
3c84d4c3
bcdcf907
bcf275a3
bc885fdb
3c9a79e8
3c5203e5
3bfcffdc
bcc4c168
3c841310
bcacb394
3a3cf162
bca944f2
bc6ce2f4
bc333be4
bcc0b404
3c12f134
bd688ac9
bd6ef90c
bcaec963
bd98dfe6
bc687289
bcff4ab9
bcc54e88
3b0cd675
bc81c8d6
3c40680c
3ca0bb75
3b92290b
3c3226eb
bbb62145
bc4bb6ae
bcab58e2
bcc6d293
bc13ed5f
bc937ea9
bc7ac3c0
3ce023fe
bc9ed807
3b275f14
bd069409
3b0d7ad5
bcdba13b
3cb66360
3ba58b06
bcf47b04
bd80cd72
bd0b9b0f
bc1cd185
3a992735
bd228cc6
ba8bb07f
3d00b6c4
3d0fcf34
3d0dbdb0
bca00193
bc1ed38d
bb6d6ac4
bb950ae6
bbf9075f
bb2e0d10
bcc9379f
bcb310ae
3ccb40e4
3be7d8a0
bc4d2cf3
3c4be4d8
bc0dcfc0
3b5c4483
bb96d65f
3c6c7fe4
bcd79da5
3c4c75d0
bc7a150e
bce4aaae
bbd6bfc9
bd020152
bcf7d24f
3cfa3328
bca21baf
3d333e78
3cc5d3da
bc2b94f3
bcf0a5f7
3ce6d261
bba18a08
3bca6bc2
bc98f700
3cd385be
bc971831
bcb0618d
3cb8603e
3cd2795e
bc342e24
bb7115aa
3cd44361
3b37ea6c
3c775691
bc7ad6b0
3c94887b
bc0866b7
bc8b5d61
3c986808
3c66b2de
3be324f8
3d2ab23a
3d4eaf13
3c3b2566
3d560a11
3cd0a990
bbfef220
bc46bf3a
bc0fe687
bd0ac073
3bb0cee6
3cb053e6
bccfabe0
3cbc0da5
bd01cbfc
3c9bb223
3b8ab60b
bc885ce3
3b2298e0
bccba222
3cdf4528
bc8c354e
3b6c36e4
bb1a0285
3cb35f99
3cc8d2fa
3c223bf0
3d0a2bad
3cb473f3
3cea54c9
3d7cd7d7
3ba17480
bbeb9e67
3cc46743
3c871042
3a0133d9
3bd5293c
3c990346
bd0d4e63
3ccd5713
3cd154a3
bc612d17
bcb191fa
3d02bca9
3cc1be60
3ba4fe38
3cd5ff76
3ccf8ed2
3b9561ba
3c9eb604
3c69e4bf
3c5718be
bbb4089d
3d4a2cba
3c4cff63
bb6c6a79
3cd37eca
3c868fe1
bae4d942
3bf6f9ab
3b6873b5
3cd9b1ea
3cf84734
3c8eb82e
3c881570
bc36ad85
3cc4acad
3cf6227d
3d0959c6
bb8ee726
3c63a59e
3cdd402e
bcd17385
bcb5f21c
3c9e9da2
bc11a412
bcbb37ad
bb579f2a
bcf1befd
3b99a158
bc08c0fe
3d0b2edf
3d3d2bbb
3d1ec53b
3cfb619d
3c81f57a
3cd0611b
3c6d0e8c
3ca77da8
3c8992c7
3d275410
3cf109dd
3c94cd55
3b507987
bbb30108
3bf52ab0
3d01f685
3bd0c3e0
bb9e60c1
3bd26cea
3d044535
bd0d07d8
bc80be1a
3cdf5c72
bc847ea2
3ad50602
bcd9c6e2
bcca7e1f
3c65609d
3cb59b09
3c0dcb65
3c8bd468
bbdae8d4
bb990e3f
3d2b1669
3d2b37d0
3cdae15c
3d0728de
bb4b9823
3c4d32da
3cfb11f9
bc6588a6
bbd74a88
3ba8e296
3cfd981c
bd002b7f
3cadf7ff
bcc5eb93
bc1a3840
bc543d00
3cea7d16
3b81df30
bc06f32e
bc3be61e
bb93bdf5
3c6ea64e
3c4fc037
bd0d7210
3c3a2055
39bfb93b
3ab08ee9
3aca4ae2
bcef3e07
3d15128b
bbc9d4b6
3cd201c7
3d141cf8
bd0b5298
3cdffc9c
ba9483b0
bc2d16e1
3c470cc4
bcef7e7d
3aaab120
bc8f0947
3cf39972
bb9cc85c
bc2973dc
bcb06c00
bb806ec0
3d0c991f
3d09c723
bce423dc
3c1db298
bcb8b0de
3c4b4d54
3bf97838
3cdb41ce
3c531b5c
3ce8e104
bc37cf1f
3ca80a8f
bc2ce370
3c21be74
bce036aa
bb430210
3c46b958
bd043f76
bcab1335
3c9dda08
3ac42820
bcdaf308
b909c200
bd031775
bbd543a4
bc36f2c6
bca8bd33
3b522a80
3c4c7124
bc9c38d3
3c84e592
bd01fae3
3bb87af7
bcb02af3
bbd8afbd
bcabe141
bcd910c1
3b6d405e
3c8656e2
bcb6280e
3ca036e2
bc915e80
3c5f7881
3b289c86
bbe5c4a8
bd0b56b1
3ad4b668
3cbdf180
bc7f611b
bcb62cde
3bfcf868
bc0df660
3a1caec0
3ce563d2
3cf36ed2
3bdad9d4
3c4429ee
3c9d8575
bce55a72
bb510ae9
3b5e18ea
3c090902
bcc65b68
3c4f56fd
3c2d2daa
bc958174
3c3d5c06
3bbd98ca
bc8f7567
bd07d284
bcd65b75
3c7a58ff
bc56d14f
3ce04d56
bc68e942
b997549d
3c7c19f3
bc9146c0
bce18696
3c180da8
bcf7909c
bd038460
bbb5a5c0
3ceb16c5
bc8e746c
bc9aedc3
bc0ac742
bce27832
bc368d89
bb9c233a
3cb482e1
3c5a6d35
3cab276d
3cfd940d
bbf54424
bc14c330
3d255c3d
bb9adeac
bc47b91b
3d0f875b
3cfc348e
bb3f658d
bc8c0309
3cbe3ec7
bd0e7b71
ba97f699
3c017d2e
bcc72317
3b9bff68
3d083c2b
3c22c1cd
3c958742
bcc62902
3b116356
3cbbced4
3cddac8d
3b632ca3
3c16b2ba
3c9843a5
bcf084e5
3a873944
3ca5f53d
3c3c3fe7
3a9f9e32
3cd70dff
3ca3d855
ba6644ae
3c005c46
bc239fee
3cba390f
bc802f28
bc42bed3
bcf7856b
3c643619
3bf51a39
bcfdf6e1
bc6acc3c
3cc55762
bca02503
bb21b7ac
3cf9d834
3cd87cc1
3ba8293c
3c8cd612
3bdc1756
3bbe2064
3c961688
3d1a7960
bbef6cb2
3d0c996d
3b543e1b
3cd3312d
bb9d0497
3c8b7136
3c0a3f54
3d292e3a
3b7a58d6
bcece3c4
bd08ad61
bb63957a
bcad6b64
bc9a915a
bc77e735
bcfa2fda
bc0f5819
3cee6baa
3bde027e
3bb82741
3b91ecea
bcda4706
bc82882b
bcc0fc4f
bb8e38b5
bce482df
3cff5fe4
bc1abd9a
bc376f11
bcc1c6e3
3c09e8c7
3cb59494
3cda9411
3cf61e0d
bc3d89f4
bd026bf3
ba93c321
bd15ca04
bc8fc8d9
bc8c929b
3c9c274b
bc3b2ccd
3c7fd87c
bd0ccbc5
bce3d0aa
3c329c77
3c910741
3c1d34a4
3c1c3e90
babb83cf
3ce92166
bc3e2f93
3d2366f5
3cc06db0
3cb5f3d0
bc6e8fac
3ca20042
bc150f38
3ccad411
3c6c469f
bcc441ec
3c819aff
3cd07fb2
bb99287d
3c53d7bd
3c7b27fe
3c70a9f8
bd025f82
bd263675
3c3e7a68
3c7caf18
bb594c1f
bd11428e
3cfe60c2
3cff5ecd
bc228aa5
bcb2d211
3c17bca1
3d0b4025
bc95ea54
3caf0afc
3ac36d7e
3d30c005
bc233650
bc3c000c
3d33888e
bc27ac95
bc67ac9b
3c848c75
3d44d837
bc4ddc1c
3b4135d5
3c5658ed
3ccb2577
bca51291
bc93a454
bbcca48f
b9f70d73
bc8504a7
3cd56175
3d08ae5e
3d030901
3bcaa070
bb814013
bcd9f73c
3c982eab
3d1c255c
3d1afbe6
bc8e8b40
3cb1ec03
3d26227c
3c8838a6
3d179a86
3d2e7189
3c18a40f
3c9b3ce3
3d4d6b8d
3904a483
3bbed5d9
3cc0426b
3cc9026d
bc23b127
3d29e82d
bc744335
bc88d041
3ca864e7
3c48a4c8
bbc9d54f
bc90575c
bc5e68de
3c8d6e71
bc31e562
3d19aee6
3c9ddf41
3c56c43f
bcc062aa
bc198c0b
bcb4fc29
3d0d64be
bc21c20f
3d2ad35c
3d46e325
3b2be018
3bf34f0c
bc613b93
bc8eb6bb
bc83c3b8
3d3d6981
3d3e5601
bbd46e3b
3d392a57
3c3833a2
bc722a3d
3d0e4a13
bc1eba87
3cd456f8
bccf6463
3afd3d9e
3d0a4359
3ce3bbb9
3ba205f7
bc4ee6a3
bca120ca
bc9c9af7
bb79ba02
bcbcb2da
3c6bbcf9
bc4187fd
ba7e3348
bd126e3b
3b688598
bcd952e8
bb93c912
bcd7aba7
3c3097f1
3bdcb5c9
3ce813b2
bc6e6c63
bbb44eac
3d3daafc
3cee7251
bc57e076
bd0b504d
3aa00da4
bc65878e
3c8e9646
3c843a35
bd042d73
3ccd988d
3bb011eb
bbc99ff0
bc9f563e
3d2d6bcf
bcc06dde
3abc4ced
bb0fb025
3c923ed2
bc092f1c
ba076017
bd3b56a2
bca31073
bd30bacb
bbe92b96
bce6c577
b99cf842
3c0557c9
3d07f837
3d0a08fd
bca6fb90
3d034cfb
3c9a7f54
3d02e81a
3cac825b
bc1d1df2
bc31d9bf
bca22938
3ccea285
bcb6478c
bc6aa4ed
bcb95ed8
bc3c903c
bcd932a7
3cc2ab1f
bc17421c
bd4daf39
bd2b9fb6
bd3ea017
bc8454f7
bd8aa19e
bd3e1fd6
3c9507a2
3b47cb27
3cf65028
3ab89baa
3d1565a1
3d2d4c6c
3d155728
3c95d37a
bcfd6871
bcedfe7b
3cc306e0
bd0407bf
bce6579b
bcfed2c8
bcb66adf
bb11b873
3cccce4b
3ba8eb1e
3cb09054
3b121fc8
3cd824d6
bc92d0c8
bb1f9e4a
bbcac572
bd730b9f
bd70b262
bd7d6a88
3a89f338
39e7ba2a
bcd92ba3
3d0bc7e2
3c5ab67c
3c74f89d
3d40f465
bb7a3ba6
bbf616b3
3a8e5033
3c7a30ef
bce166f4
bc7e2e47
baad20ab
bcd73028
3c4c2521
bc721faf
3cf7e9d8
3c9f719d
3cf1d9cd
3c9b6d44
3cb3e256
3ba5c7db
bc1c13d0
bc517c91
bd48aaf9
bd31a340
bcd0b0a3
3c0d601c
3b256e8d
3c1d8432
b8783949
3cb076b7
3d3fc3c1
bbfd53cb
3d19d57f
bc89b768
bb7bf85a
bb306f8d
3c996b89
3d0f36af
3cb133ea
3c71b936
bcacd544
bce02570
3cb2d440
3cc145b1
3d08dce5
bbdfa497
3d43f61b
3a4052a0
bd26ecf3
3c250a17
bad3d607
bcaec4fc
3cb6a6b4
bc943bad
3ce3f426
3d332236
bc45c1da
bc1a760c
3d5a24be
3cdb49a4
3d101cc5
bcb30c2d
bc709017
bbf8b723
bc94d837
3c809370
bc44f606
3c41317a
3b03c361
3d1d4adb
3d3f8c3a
3cc8e1dd
3d3e9dcb
3cdb5097
3d3c40cc
3ca82a7a
bcb23db6
3cc0d3b4
3ce5edd1
399e36d0
bc859fde
3cdd7748
3d30f841
3babe419
3d1368eb
3d4795a3
bbcd8fb2
3c720bf4
3cffc074
bb6d351c
bc18f2ff
3d00a9ec
3cc60a09
bc8b4206
3cdcaf00
bcf6c64e
39809c7d
3b2bef6e
bc021742
3d492934
3b2885b7
3d58bf0b
3d62687b
3d4d79a8
3ceafc70
3c211cf9
3d05a70c
3d12cdfa
3b5d0561
3d45b853
3b377d4a
3c58994c
3d059b0c
3ce6785b
bb99d455
3c314665
3d1ffaea
3d132b67
3c658b5e
3c316933
bc57aaf2
3ce1473e
3bb5b8a5
3c2c370b
3c4f2d38
bbf781be
3d28a0d3
3d298dcb
3c17cd31
bbbd7801
3af45b50
3d47c1d4
3d7ee015
3c99d8ea
3c249fa9
3d08da5b
3cd36a24
3d3aad75
3c09642a
3ce4992b
3cad5501
3cb6f861
bca84a59
3c215e02
3c33db24
bcee32a0
bc1d7390
3c555d15
bca63e1f
bcfd8581
3bf245bd
3cd4d1fc
bcb40ec6
3ce1c255
bb3ce5f6
3d14ca4b
3c7d471f
3c4b8b4a
3d5aad05
3b5fdd4b
3d17adaa
3d30d612
3cfdb391
3ce21235
3d2b12a2
3d2ee7e5
3cddf195
3c292876
3c154965
bc41a650
3cb94b37
3c2bc4aa
3cfc4b1d
3cf5835e
bc053024
3c72cea5
3cd232ac
bc632b38
3ce99f1c
bcd28bd0
bbe90bdc
3c208cd9
bc63accd
3cfd19b4
3c5d2e69
bc312ea7
bb4a495e
3c769391
bbdd6461
3d52ede3
3c214ba3
bb3a2932
bbfb934f
3b51ac1f
3b67ae70
bb7585fc
3c69c077
bb9046fc
3cdf77f1
bc3085b1
3bcfee78
3c5c522b
3bfbeacb
38a5230a
bcecb35c
bc07e1dc
3ca37934
3cfadb57
bc1a4bbb
bcceddf9
bd004dce
bc8d74a0
bc8698b3
3d1d544a
bc254c4b
3d047269
bc993480
3bf3c00a
3c9ef46c
3c2388c8
bcff564f
ba90131f
bbfa5096
3c4d5157
bd05fea8
3c8174dd
bc172448
bcf31c38
bcbac0ac
3d01ebe2
bcc4c5a7
3d01992b
bccfddf6
bcbd25f0
3b057c20
3d01fa4d
bc1d415d
bb72d9d1
bcca96f0
bcd4ac45
3c963518
bd106cec
3cde0f2c
3bd32571
3c8b1c92
bcc0c28b
bc08e5b5
bb4829a7
3c53e3ce
bc9f48a1
3b4a0055
bd106273
bb898edb
bceaea12
bbd46008
bc5d27e1
bca2cd3c
bb166b65
bcc9e9b2
bc23803f
3acaa760
3cdb013a
3a4e3c80
3d0b5593
3c1ec1f0
bd087c99
3c95a68d
3ce8cd96
bb8989e2
bd070922
3c1080c7
ba90d907
3ca2e20a
bcc2ee03
b956c46e
bd288c45
3b44a6d4
3c179a03
bc0a06d3
bc3972f9
bceb81e8
bbb89496
bbdec513
3c82ee47
3c9a9d47
bc9e72cb
3bc39e98
bc93adc2
bcb49693
bc0b75fc
bd061bd6
ba205e4f
bcae61d3
3cac2b47
ba1337a6
bcd5e958
bc85ded0
3d0a6a38
3c7a7ddf
3c26cef0
bc86d1fd
bce5a4cd
3c65883a
bc96222d
3cfdbdea
3a992f42
bce6fb67
3d046eed
bd0e1cd5
bc646e5e
baebbf81
bcb6ddb9
bc7a0a45
bc0a7dd3
bb84190e
3c193e0b
bc2b2e52
bd034285
3b579590
bc11a804
3b91b410
3ce2fdc1
bd02d4de
3b84c9fa
bba36430
bb91c774
bb873e77
3c7a50e7
bc67c345
3994fed0
bc68f6b3
3a8a448a
bc5b7477
3cbaadbd
3c4a0629
bc1c02d8
bc8e0eb6
bb027b54
3cc33ccb
bcb99cf1
bc840e91
3cecb631
3cfee236
3d05f89f
bc681b52
3c9d318e
bcb05733
3cf8b13a
bc3fb25c
3c744857
3c93b408
3cfdaaef
bc2fbf12
3ce2eba5
3ca65bfb
3c2a0bbd
bce53db8
bc803a8e
bcbbab91
bc786fec
b84bbb1d
bcab8299
bcc23318
3ca0b195
bcc09be2
bc0ee363
3c9342b9
3c544fb1
3c33a3a2
3b709aa0
3ce8a71a
bc74ec34
3caa0ba0
bd0c6d1a
3ce9f7ee
bcacd548
3cca5c90
bcbed1be
bce22ac5
3c91fef0
bccbde83
bc771bc0
bd0d6075
3cff52d6
38de8400
3d08022f
3bf628b2
bcb6662c
3bdfeb70
bae32160
3bea9af8
bbb2d2c8
3ce4f9fe
bc8fadaa
3c7fa520
bb4c0c80
bbac005c
3cd7bf02
bc7cfb6e
ba3f1f80
3cb0e85a
bc434a78
3d0021cf
3b175430
3c13a0c8
bbecab79
3cb28ca2
3c4e2035
3c40b877
bc184c51
bc2d95d9
3c2178fd
bccadc9f
bb03cada
bc9aef43
bc9cab78
3c9e92a6
3c97952e
3c184ad7
3c91b7d7
3b48fd56
3cee78b0
3cbb0dfd
3c90424e
3aca2147
3c92f846
3c843cfe
bcaf4ea5
bc68a540
3d0304c1
3c845410
bb9d2a3a
3c11232f
bc8ce973
bc5f6c76
bcaeac73
bbe55568
3cb70d6e
3cb8f48c
bc8c8c16
bc187f79
3d1f1d93
bcacfaf8
3c08bce1
3c436033
bbc5462e
3b07555b
3b207e0d
3ca93e2a
3bbf3013
39a1fbde
bcc0c195
bbc661f6
bc9530a9
3c8b0ac8
3d0e1f11
3c62cfe0
3c38ac38
3ce95962
bca33e4a
3cfa6a25
3d120c55
bcdde7ec
3ce84dc9
bd0d38ee
bbc41de6
bcf97f8c
ba616b17
bbf9fba8
bc9ef00c
bc8e16c7
3b5c0b47
3d11a7f9
3d002e89
3d534afd
3cbf8ea1
babab71a
bc97f942
bce36469
3c809543
bc16bdbd
bcb22c14
3c8accd7
3ce721be
bcee8fb1
3c2b8110
3ce54297
3c8d53e3
bba14197
bb8eba09
3bbdfb17
3ca131cb
3cde5446
bcfa4a25
3d0c01c4
bbc74465
bb85f3f4
bc2c8ef2
3caf5d00
bc6fdebb
3cd0f6a3
3d40fe08
3d2b3dd1
3cf0b191
3d2de501
3d086338
bbe355f9
bb35e5e3
